{
  "version": "1.0",
  "truncation": null,
  "padding": null,
  "added_tokens": [
    {
      "id": 0,
      "content": "<pad>",
      "single_word": false,
      "lstrip": false,
      "rstrip": false,
      "normalized": false,
      "special": true
    },
    {
      "id": 1,
      "content": "<s>",
      "single_word": false,
      "lstrip": false,
      "rstrip": false,
      "normalized": false,
      "special": true
    },
    {
      "id": 2,
      "content": "</s>",
      "single_word": false,
      "lstrip": false,
      "rstrip": false,
      "normalized": false,
      "special": true
    },
    {
      "id": 3,
      "content": "<unk>",
      "single_word": false,
      "lstrip": false,
      "rstrip": false,
      "normalized": false,
      "special": true
    }
  ],
  "normalizer": {
    "type": "NFKC"
  },
  "pre_tokenizer": {
    "type": "ByteLevel",
    "add_prefix_space": false,
    "trim_offsets": true,
    "use_regex": true
  },
  "post_processor": {
    "type": "ByteLevel",
    "add_prefix_space": true,
    "trim_offsets": false,
    "use_regex": true
  },
  "decoder": null,
  "model": {
    "type": "BPE",
    "dropout": null,
    "unk_token": "<unk>",
    "continuing_subword_prefix": null,
    "end_of_word_suffix": null,
    "fuse_unk": false,
    "byte_fallback": false,
    "ignore_merges": false,
    "vocab": {
      "<pad>": 0,
      "<s>": 1,
      "</s>": 2,
      "<unk>": 3,
      "!": 4,
      "\"": 5,
      "#": 6,
      "$": 7,
      "%": 8,
      "&": 9,
      "'": 10,
      "(": 11,
      ")": 12,
      "*": 13,
      "+": 14,
      ",": 15,
      "-": 16,
      ".": 17,
      "/": 18,
      "0": 19,
      "1": 20,
      "2": 21,
      "3": 22,
      "4": 23,
      "5": 24,
      "6": 25,
      "7": 26,
      "8": 27,
      "9": 28,
      ":": 29,
      ";": 30,
      "<": 31,
      "=": 32,
      ">": 33,
      "?": 34,
      "@": 35,
      "A": 36,
      "B": 37,
      "C": 38,
      "D": 39,
      "E": 40,
      "F": 41,
      "G": 42,
      "H": 43,
      "I": 44,
      "J": 45,
      "K": 46,
      "L": 47,
      "M": 48,
      "N": 49,
      "O": 50,
      "P": 51,
      "Q": 52,
      "R": 53,
      "S": 54,
      "T": 55,
      "U": 56,
      "V": 57,
      "W": 58,
      "X": 59,
      "Y": 60,
      "Z": 61,
      "[": 62,
      "\\": 63,
      "]": 64,
      "^": 65,
      "_": 66,
      "`": 67,
      "a": 68,
      "b": 69,
      "c": 70,
      "d": 71,
      "e": 72,
      "f": 73,
      "g": 74,
      "h": 75,
      "i": 76,
      "j": 77,
      "k": 78,
      "l": 79,
      "m": 80,
      "n": 81,
      "o": 82,
      "p": 83,
      "q": 84,
      "r": 85,
      "s": 86,
      "t": 87,
      "u": 88,
      "v": 89,
      "w": 90,
      "x": 91,
      "y": 92,
      "z": 93,
      "|": 94,
      "}": 95,
      "~": 96,
      "¡": 97,
      "¢": 98,
      "£": 99,
      "¤": 100,
      "¥": 101,
      "¦": 102,
      "§": 103,
      "¨": 104,
      "©": 105,
      "ª": 106,
      "«": 107,
      "¬": 108,
      "®": 109,
      "¯": 110,
      "°": 111,
      "±": 112,
      "²": 113,
      "³": 114,
      "´": 115,
      "µ": 116,
      "¶": 117,
      "·": 118,
      "¸": 119,
      "¹": 120,
      "º": 121,
      "»": 122,
      "¼": 123,
      "½": 124,
      "¾": 125,
      "¿": 126,
      "Â": 127,
      "Ã": 128,
      "Ä": 129,
      "Å": 130,
      "Æ": 131,
      "Ç": 132,
      "È": 133,
      "É": 134,
      "Ê": 135,
      "Ë": 136,
      "Ì": 137,
      "Í": 138,
      "Î": 139,
      "Ï": 140,
      "Ð": 141,
      "Ñ": 142,
      "Ò": 143,
      "Ó": 144,
      "Ô": 145,
      "Õ": 146,
      "Ö": 147,
      "×": 148,
      "Ø": 149,
      "Ù": 150,
      "Ú": 151,
      "Û": 152,
      "Ü": 153,
      "ß": 154,
      "à": 155,
      "á": 156,
      "â": 157,
      "ã": 158,
      "ä": 159,
      "å": 160,
      "æ": 161,
      "ç": 162,
      "è": 163,
      "é": 164,
      "ê": 165,
      "ë": 166,
      "ì": 167,
      "í": 168,
      "î": 169,
      "ï": 170,
      "ð": 171,
      "Ā": 172,
      "Ă": 173,
      "ă": 174,
      "ą": 175,
      "Ć": 176,
      "ć": 177,
      "Ĉ": 178,
      "Đ": 179,
      "Ē": 180,
      "ē": 181,
      "ė": 182,
      "Ę": 183,
      "ę": 184,
      "Ě": 185,
      "ě": 186,
      "Ġ": 187,
      "Ģ": 188,
      "ģ": 189,
      "Ĥ": 190,
      "ĥ": 191,
      "Ħ": 192,
      "ħ": 193,
      "Ĩ": 194,
      "ĩ": 195,
      "Ī": 196,
      "ī": 197,
      "Ĭ": 198,
      "ĭ": 199,
      "Į": 200,
      "į": 201,
      "İ": 202,
      "ı": 203,
      "Ĳ": 204,
      "ĳ": 205,
      "Ĵ": 206,
      "ĵ": 207,
      "Ķ": 208,
      "ķ": 209,
      "ĸ": 210,
      "Ĺ": 211,
      "ĺ": 212,
      "Ļ": 213,
      "ļ": 214,
      "Ľ": 215,
      "ľ": 216,
      "Ŀ": 217,
      "ŀ": 218,
      "Ł": 219,
      "ł": 220,
      "Ń": 221,
      "Ġt": 222,
      "Ġa": 223,
      "in": 224,
      "he": 225,
      "re": 226,
      "on": 227,
      "Ġthe": 228,
      "er": 229,
      "Ġs": 230,
      "Ġw": 231,
      "Ġo": 232,
      "at": 233,
      "Ġc": 234,
      "nd": 235,
      "it": 236,
      "ou": 237,
      "or": 238,
      "es": 239,
      "is": 240,
      "Ġf": 241,
      "en": 242,
      "Ġp": 243,
      "Ġb": 244,
      "ing": 245,
      "an": 246,
      "ed": 247,
      "Ġto": 248,
      "al": 249,
      "Ġm": 250,
      "Ġand": 251,
      "ar": 252,
      "Ġin": 253,
      "Ġof": 254,
      "Ġd": 255,
      "ic": 256,
      "le": 257,
      "om": 258,
      "ion": 259,
      "Ġh": 260,
      "as": 261,
      "Ġth": 262,
      "ll": 263,
      "Ġy": 264,
      "ent": 265,
      "Ġl": 266,
      "ve": 267,
      "ro": 268,
      "Ġe": 269,
      "Ġre": 270,
      "ĠI": 271,
      "ĠT": 272,
      "st": 273,
      "Ġn": 274,
      "Ġyou": 275,
      "ct": 276,
      "Ġg": 277,
      "ly": 278,
      "et": 279,
      "âĢ": 280,
      "Ġis": 281,
      "Ġfor": 282,
      "Ġbe": 283,
      "ĠS": 284,
      "ut": 285,
      "ot": 286,
      "ĠA": 287,
      "Ġon": 288,
      "id": 289,
      "ur": 290,
      "ow": 291,
      "ay": 292,
      "ĠC": 293,
      "us": 294,
      "ce": 295,
      "ig": 296,
      "im": 297,
      "ch": 298,
      "ra": 299,
      "ith": 300,
      "ver": 301,
      "ation": 302,
      "il": 303,
      "Ġthat": 304,
      "ol": 305,
      "Ġst": 306,
      "Ġwith": 307,
      "ad": 308,
      "am": 309,
      "ĠM": 310,
      "ir": 311,
      "Ġit": 312,
      "se": 313,
      "Ġwe": 314,
      "ĠThe": 315,
      "âĢĻ": 316,
      "Ġpro": 317,
      "Ġan": 318,
      "ĠW": 319,
      "ill": 320,
      "ĠP": 321,
      "Ġas": 322,
      "ĠB": 323,
      "Ġare": 324,
      "ers": 325,
      "Ġhe": 326,
      "Ġwh": 327,
      "if": 328,
      "un": 329,
      "ge": 330,
      "ke": 331,
      "Ġha": 332,
      "Ġcon": 333,
      "Ġor": 334,
      "ter": 335,
      "ul": 336,
      "ess": 337,
      "Ġcom": 338,
      "oo": 339,
      "ate": 340,
      "ĠH": 341,
      "pp": 342,
      "her": 343,
      "ment": 344,
      "ĠD": 345,
      "ĠF": 346,
      "est": 347,
      "ld": 348,
      "Ġyour": 349,
      "ab": 350,
      "Ġat": 351,
      "Ġde": 352,
      "Ġse": 353,
      "ore": 354,
      "ri": 355,
      "Ġex": 356,
      "ck": 357,
      "rom": 358,
      "Ġne": 359,
      "igh": 360,
      "pe": 361,
      "ure": 362,
      "qu": 363,
      "ist": 364,
      "ĠR": 365,
      "ort": 366,
      "Ġ1": 367,
      "ity": 368,
      "ant": 369,
      "Ġv": 370,
      "ĠL": 371,
      "Ġhave": 372,
      "Ġ2": 373,
      "ive": 374,
      "um": 375,
      "Ġcan": 376,
      "art": 377,
      "Ġwas": 378,
      "ĠG": 379,
      "ust": 380,
      "ĠE": 381,
      "Ġus": 382,
      "Ġ(": 383,
      "op": 384,
      "Ġfrom": 385,
      "ain": 386,
      "Ġthis": 387,
      "em": 388,
      "ĠN": 389,
      "th": 390,
      "Ġal": 391,
      "Ġr": 392,
      "Ġsh": 393,
      "ies": 394,
      "Ġch": 395,
      "os": 396,
      "Ġwill": 397,
      "Ġnot": 398,
      "el": 399,
      "Ġby": 400,
      "ĠO": 401,
      "Ġsu": 402,
      "nt": 403,
      "and": 404,
      "ight": 405,
      "Ġu": 406,
      "ome": 407,
      "all": 408,
      "Ġle": 409,
      "ard": 410,
      "res": 411,
      "ĠâĢ": 412,
      "ud": 413,
      "out": 414,
      "ost": 415,
      "iv": 416,
      "Ġdo": 417,
      "our": 418,
      "Ġwor": 419,
      "ial": 420,
      "Ġab": 421,
      "od": 422,
      "ie": 423,
      "ould": 424,
      "Ġall": 425,
      "Ġpl": 426,
      "ect": 427,
      "ide": 428,
      "per": 429,
      "gh": 430,
      "rou": 431,
      "ine": 432,
      "red": 433,
      "ast": 434,
      "ĠTh": 435,
      "Ġcomp": 436,
      "Ġma": 437,
      "Ġso": 438,
      "ice": 439,
      "Ġj": 440,
      "age": 441,
      "Ġk": 442,
      "pt": 443,
      "ally": 444,
      "Ġad": 445,
      "ear": 446,
      "Ġhas": 447,
      "00": 448,
      "Ġwhe": 449,
      "te": 450,
      "ĠJ": 451,
      "able": 452,
      "king": 453,
      "ions": 454,
      "ag": 455,
      "Ġen": 456,
      "ac": 457,
      "ĠIn": 458,
      "Ġme": 459,
      "ther": 460,
      "ff": 461,
      "so": 462,
      "Ġbut": 463,
      "ich": 464,
      "Ġout": 465,
      "lo": 466,
      "ip": 467,
      "are": 468,
      "ind": 469,
      "Ġour": 470,
      "ĠU": 471,
      "Ġup": 472,
      "very": 473,
      "ated": 474,
      "ack": 475,
      "ry": 476,
      "one": 477,
      "cc": 478,
      "Ġmore": 479,
      "Ġtheir": 480,
      "Ġte": 481,
      "ime": 482,
      "ite": 483,
      "du": 484,
      "ĠY": 485,
      "Ġim": 486,
      "iz": 487,
      "Ġthey": 488,
      "'s": 489,
      "ood": 490,
      "ong": 491,
      "act": 492,
      "Ġlo": 493,
      "orm": 494,
      "Ġmy": 495,
      "Ġcont": 496,
      "ous": 497,
      "Ġone": 498,
      "ks": 499,
      "ance": 500,
      "ans": 501,
      "Ġcl": 502,
      "ike": 503,
      "ib": 504,
      "ign": 505,
      "Ġun": 506,
      "Ġman": 507,
      "Ġfe": 508,
      "Ġinc": 509,
      "ru": 510,
      "Ġres": 511,
      "Ġapp": 512,
      "Ġwhich": 513,
      "Ġabout": 514,
      "ĠIt": 515,
      "ire": 516,
      "reat": 517,
      "ult": 518,
      "Ġoff": 519,
      "Ġqu": 520,
      "ase": 521,
      "ĠWe": 522,
      "ail": 523,
      "ations": 524,
      "ace": 525,
      "Ġper": 526,
      "og": 527,
      "ia": 528,
      "ĠK": 529,
      "erv": 530,
      "Ġ20": 531,
      "Ġany": 532,
      "Ġalso": 533,
      "Ġwho": 534,
      "ree": 535,
      "..": 536,
      "Ġgo": 537,
      "Ġother": 538,
      "Ġtime": 539,
      "ach": 540,
      "ap": 541,
      "to": 542,
      "ber": 543,
      "ame": 544,
      "ass": 545,
      "form": 546,
      "pl": 547,
      "ical": 548,
      "ile": 549,
      "vel": 550,
      "ven": 551,
      "ary": 552,
      "Ġdis": 553,
      "ays": 554,
      "Ġyear": 555,
      "ĠThis": 556,
      "Ġget": 557,
      "Ġlike": 558,
      "ount": 559,
      "Ġpart": 560,
      "Ġsome": 561,
      "Ġsp": 562,
      "ep": 563,
      "ction": 564,
      "Ġsa": 565,
      "ook": 566,
      "ence": 567,
      "ĠV": 568,
      "ĠSt": 569,
      "ue": 570,
      "ents": 571,
      "Ġta": 572,
      "Ġnew": 573,
      "ition": 574,
      "now": 575,
      "ĠâĢľ": 576,
      "Ġthem": 577,
      "Ġ3": 578,
      "ub": 579,
      "Ġneed": 580,
      "âĢĿ": 581,
      "ĠCh": 582,
      "ors": 583,
      "fe": 584,
      "Ġtra": 585,
      "ord": 586,
      "Ġ\"": 587,
      "Ġwhen": 588,
      "Ġspe": 589,
      "ings": 590,
      "Ġhis": 591,
      "ress": 592,
      "ick": 593,
      "Ġover": 594,
      "Ġar": 595,
      "cial": 596,
      "Ġrec": 597,
      "Ġif": 598,
      "Ġbeen": 599,
      "Ġthere": 600,
      "ond": 601,
      "Ġ201": 602,
      "Ġro": 603,
      "Ġco": 604,
      "ark": 605,
      "Ġimp": 606,
      "Ġpe": 607,
      "Ġag": 608,
      "ild": 609,
      "Ġpre": 610,
      "Ġsc": 611,
      "Ġwork": 612,
      "ren": 613,
      "av": 614,
      "Ġwhat": 615,
      "ens": 616,
      "Ġthan": 617,
      "ough": 618,
      "Ġwould": 619,
      "ish": 620,
      "Ġdes": 621,
      "wn": 622,
      "Ġam": 623,
      "int": 624,
      "nder": 625,
      "Ġacc": 626,
      "Ġhow": 627,
      "Ġwere": 628,
      "ater": 629,
      "lp": 630,
      "Ġjust": 631,
      "Ġknow": 632,
      "rough": 633,
      "Ġhad": 634,
      "ound": 635,
      "Ġcomm": 636,
      "own": 637,
      "ne": 638,
      "Ġprov": 639,
      "Ġbec": 640,
      "ak": 641,
      "Ġinto": 642,
      "use": 643,
      "vers": 644,
      "Ġhelp": 645,
      "lud": 646,
      "ĠHe": 647,
      "ĠYou": 648,
      "ople": 649,
      "irst": 650,
      "Ġserv": 651,
      "Ġmake": 652,
      "old": 653,
      "Ġbu": 654,
      "ang": 655,
      "lic": 656,
      "Ġits": 657,
      "Ġuse": 658,
      "Ġadd": 659,
      "ory": 660,
      "Ġmay": 661,
      "Ġno": 662,
      "ning": 663,
      "ces": 664,
      "Ġpr": 665,
      "fter": 666,
      "ram": 667,
      "rent": 668,
      "Ġher": 669,
      "ual": 670,
      "Ġprodu": 671,
      ").": 672,
      "Ġ-": 673,
      "ments": 674,
      "Ġind": 675,
      "itt": 676,
      "ĠIf": 677,
      "Ġmost": 678,
      "Ġem": 679,
      "Ġpeople": 680,
      "ft": 681,
      "ices": 682,
      "ose": 683,
      "we": 684,
      "Ġwell": 685,
      "tern": 686,
      "oc": 687,
      "ious": 688,
      "Ġonly": 689,
      "Ġthrough": 690,
      "ĠWh": 691,
      "Ġtr": 692,
      "Ġinclud": 693,
      "ons": 694,
      "les": 695,
      "hed": 696,
      "ily": 697,
      "ates": 698,
      "ject": 699,
      "ian": 700,
      "ov": 701,
      "Ġtw": 702,
      "Ġevery": 703,
      "Ġ4": 704,
      "ull": 705,
      "end": 706,
      "Ġph": 707,
      "Ġfirst": 708,
      "Ġcons": 709,
      "Ġbet": 710,
      "round": 711,
      "ink": 712,
      "lect": 713,
      "Ġ5": 714,
      "Ġact": 715,
      "ating": 716,
      "ise": 717,
      "ĠâĢĵ": 718,
      "ause": 719,
      "Ġunder": 720,
      "Ġthese": 721,
      "ities": 722,
      "Ġsupp": 723,
      "Ġwant": 724,
      "Ġdif": 725,
      "Ġpo": 726,
      "bs": 727,
      "ific": 728,
      "Ġexper": 729,
      "Ġcol": 730,
      "Ġvery": 731,
      "ade": 732,
      "Ġsee": 733,
      "oth": 734,
      "ĠAs": 735,
      "mer": 736,
      "Ġrep": 737,
      "hen": 738,
      "li": 739,
      "Ġback": 740,
      "iness": 741,
      "Ġreg": 742,
      "cess": 743,
      "ict": 744,
      "Ġra": 745,
      "Ġsy": 746,
      "xt": 747,
      "ange": 748,
      "ĠRe": 749,
      "ph": 750,
      "ful": 751,
      "ove": 752,
      "ert": 753,
      "amp": 754,
      "Ġmany": 755,
      "ced": 756,
      "any": 757,
      "Ġ19": 758,
      "iew": 759,
      "Ġinv": 760,
      "fore": 761,
      "ife": 762,
      "Ġstud": 763,
      "uch": 764,
      "ract": 765,
      "iss": 766,
      "Ġbus": 767,
      "Ġfl": 768,
      "day": 769,
      "Ġgood": 770,
      "ures": 771,
      "als": 772,
      "'t": 773,
      "ible": 774,
      "sel": 775,
      "Ġgreat": 776,
      "Ġke": 777,
      "Ġtwo": 778,
      "row": 779,
      "Ġdec": 780,
      "Ġshe": 781,
      "urn": 782,
      "Ġway": 783,
      "ower": 784,
      "Ġyears": 785,
      "erson": 786,
      "Ġev": 787,
      "Ġsm": 788,
      "ting": 789,
      "Ġafter": 790,
      "Ġshould": 791,
      "Ġac": 792,
      "ility": 793,
      "ob": 794,
      "ool": 795,
      "Ġinform": 796,
      "Ġpos": 797,
      "Ġown": 798,
      "Ġwhere": 799,
      "Ġcould": 800,
      "ased": 801,
      "eth": 802,
      "ys": 803,
      "Ġrem": 804,
      "pect": 805,
      "Ġthen": 806,
      "Ġeven": 807,
      "Ġbest": 808,
      "Ġent": 809,
      "ational": 810,
      "get": 811,
      "Ġcar": 812,
      "olog": 813,
      "Ġinst": 814,
      "erm": 815,
      "ience": 816,
      "Ġins": 817,
      "ew": 818,
      "Ġrel": 819,
      "Ġfind": 820,
      "stem": 821,
      "ular": 822,
      "Ġstart": 823,
      "oll": 824,
      "uring": 825,
      "Ġhigh": 826,
      "Ġset": 827,
      "ont": 828,
      "Ġright": 829,
      "aw": 830,
      "rit": 831,
      "Ġsuch": 832,
      "Ġnow": 833,
      "Ġdesign": 834,
      "ath": 835,
      "ĠUn": 836,
      "ward": 837,
      "Ġhome": 838,
      "Ġloc": 839,
      "Ġfin": 840,
      "Ġsec": 841,
      "velop": 842,
      "Ġrequ": 843,
      "ative": 844,
      "ble": 845,
      "Ġeff": 846,
      "ts": 847,
      "Ġmuch": 848,
      "Ġgu": 849,
      "Ġdiffe": 850,
      "ĠAn": 851,
      "Ġsaid": 852,
      "line": 853,
      "ics": 854,
      "Ġdown": 855,
      "Ġplay": 856,
      "ty": 857,
      "hes": 858,
      "its": 859,
      "Ġbusiness": 860,
      "ĠFor": 861,
      "Ġav": 862,
      "ĠSe": 863,
      "alth": 864,
      "hip": 865,
      "Ġread": 866,
      "Ġdon": 867,
      "ĠCom": 868,
      "air": 869,
      "Ġatt": 870,
      "ener": 871,
      "Ġday": 872,
      "),": 873,
      "Ġinformation": 874,
      "ĠAnd": 875,
      "oy": 876,
      "Ġtake": 877,
      "Ġinte": 878,
      "Ġused": 879,
      "ident": 880,
      "arch": 881,
      "gan": 882,
      "Ġbecause": 883,
      "Ġproduct": 884,
      "ited": 885,
      "com": 886,
      "Ġmin": 887,
      "Ġperson": 888,
      "ient": 889,
      "Ġlong": 890,
      "ĠPro": 891,
      "Ġtoo": 892,
      "ĠDe": 893,
      "Ġfam": 894,
      "Ġ6": 895,
      "Ġmod": 896,
      "Ġbl": 897,
      "Ġmon": 898,
      "Ġsur": 899,
      "arket": 900,
      "Ġche": 901,
      "chn": 902,
      "ied": 903,
      "Ġdisc": 904,
      "ving": 905,
      "ustom": 906,
      "Ġass": 907,
      "Ġsim": 908,
      "Ġbel": 909,
      "Ġprog": 910,
      "cy": 911,
      "Ġdevelop": 912,
      "Ġmade": 913,
      "Ġcre": 914,
      "chool": 915,
      "und": 916,
      "ality": 917,
      "Ġdoes": 918,
      "Ġ&": 919,
      "Ġsystem": 920,
      "up": 921,
      "Ġprovid": 922,
      "ash": 923,
      "ved": 924,
      "Ġdid": 925,
      "Ġvis": 926,
      "Ġhere": 927,
      "Ġbefore": 928,
      "other": 929,
      "Ġnum": 930,
      "Ġbr": 931,
      "io": 932,
      "Ġshow": 933,
      "rib": 934,
      "ner": 935,
      "Ġthose": 936,
      "Ġtrans": 937,
      "Ġbeing": 938,
      "Ġpres": 939,
      "ually": 940,
      "ĠAl": 941,
      "Ġlife": 942,
      "Ġcall": 943,
      "arm": 944,
      "Ġend": 945,
      "Ġmed": 946,
      "Ġworld": 947,
      "Ġcomple": 948,
      "Ġeas": 949,
      "Ġwee": 950,
      "ĠThere": 951,
      "Ġhand": 952,
      "Ġdet": 953,
      "Ġeach": 954,
      "rest": 955,
      "ix": 956,
      "ell": 957,
      "ata": 958,
      "Ġ$": 959,
      "Ġcur": 960,
      "Ġsupport": 961,
      "Ġart": 962,
      "ric": 963,
      "ci": 964,
      "Ġbo": 965,
      "Ġexp": 966,
      "Ġsub": 967,
      "ake": 968,
      "Ġdifferent": 969,
      "Ġagain": 970,
      "Ġlook": 971,
      "ues": 972,
      "ages": 973,
      "ork": 974,
      "Ġinter": 975,
      "ĠSo": 976,
      "led": 977,
      "ĠBut": 978,
      "ives": 979,
      "Ġcustom": 980,
      "ĠHow": 981,
      "way": 982,
      "ank": 983,
      "Ġadv": 984,
      "Ġform": 985,
      "Ġop": 986,
      "ĠSh": 987,
      "Ġmem": 988,
      "ince": 989,
      "arn": 990,
      "gg": 991,
      "Ġwhile": 992,
      "ional": 993,
      "ĠBe": 994,
      "cept": 995,
      "kes": 996,
      "ize": 997,
      "az": 998,
      "Ġprocess": 999,
      "land": 1000,
      "ouse": 1001,
      "ason": 1002,
      "olut": 1003,
      "Ġaut": 1004,
      "Ġsk": 1005,
      "Ġaround": 1006,
      "ng": 1007,
      "Ġcare": 1008,
      "ple": 1009,
      "ines": 1010,
      "ros": 1011,
      "Ġpost": 1012,
      "ever": 1013,
      "Ġcommun": 1014,
      "irect": 1015,
      "Ġstr": 1016,
      "ather": 1017,
      "Ġavail": 1018,
      "Ġlast": 1019,
      "Ġcle": 1020,
      "der": 1021,
      "Ġ10": 1022,
      "...": 1023,
      "Ġed": 1024,
      "self": 1025,
      "ollow": 1026,
      "Ġmarket": 1027,
      "Ġprof": 1028,
      "Ġchild": 1029,
      "Ġgra": 1030,
      "ins": 1031,
      "Ġcour": 1032,
      "Ġprogram": 1033,
      "Ġplace": 1034,
      "Ġ8": 1035,
      "Ġreally": 1036,
      "Ġ7": 1037,
      "lease": 1038,
      "Ġfree": 1039,
      "read": 1040,
      "Ġlove": 1041,
      "ale": 1042,
      "Ġ200": 1043,
      "Ġret": 1044,
      "Ġloo": 1045,
      "Ġser": 1046,
      "ave": 1047,
      "Ġlead": 1048,
      "atch": 1049,
      "Ġteam": 1050,
      "Ġpur": 1051,
      "ness": 1052,
      "pr": 1053,
      "imes": 1054,
      "Ġimport": 1055,
      "Ġtechn": 1056,
      "ways": 1057,
      "Ġproject": 1058,
      "ween": 1059,
      "The": 1060,
      "Ġlist": 1061,
      "Ġfun": 1062,
      "ĠAr": 1063,
      "Ġboth": 1064,
      "Ġsign": 1065,
      "ets": 1066,
      "ene": 1067,
      "Ġcount": 1068,
      "Ġ.": 1069,
      "ĠThey": 1070,
      "ature": 1071,
      "Ġfeel": 1072,
      "Ġusing": 1073,
      "Ġsom": 1074,
      "Ġpub": 1075,
      "ps": 1076,
      "ivers": 1077,
      "Ġlar": 1078,
      "Ġhim": 1079,
      "Ġfull": 1080,
      "ĠOn": 1081,
      "Ġthink": 1082,
      "Ġcompany": 1083,
      "Ġsame": 1084,
      "Ġext": 1085,
      "oun": 1086,
      "ized": 1087,
      "Ġvar": 1088,
      "Ġavailable": 1089,
      "riend": 1090,
      "de": 1091,
      "ten": 1092,
      "ining": 1093,
      "Ġbetween": 1094,
      "Ġval": 1095,
      "ĠNew": 1096,
      "Ġgener": 1097,
      "Ġstill": 1098,
      "Ġchar": 1099,
      "Ġservice": 1100,
      "ves": 1101,
      "Ġpol": 1102,
      "Ġhealth": 1103,
      "Ġthough": 1104,
      "Ġopt": 1105,
      "Ġgoing": 1106,
      "Ġplan": 1107,
      "Ġtop": 1108,
      "ĠAd": 1109,
      "ĠCl": 1110,
      "Ġfound": 1111,
      "Ġlot": 1112,
      "Ġty": 1113,
      "view": 1114,
      "Ġappro": 1115,
      "ired": 1116,
      "ology": 1117,
      "ety": 1118,
      "Ġfew": 1119,
      "Ġide": 1120,
      "Ġdata": 1121,
      "Ġfollow": 1122,
      "Ġmain": 1123,
      "ittle": 1124,
      "uc": 1125,
      "Ġcor": 1126,
      "Ġbuild": 1127,
      "ants": 1128,
      "Ġ9": 1129,
      "Ġkeep": 1130,
      "iqu": 1131,
      "less": 1132,
      "Ġexperience": 1133,
      "Ġoffer": 1134,
      "Ġpoint": 1135,
      "Ġallow": 1136,
      "Ġposs": 1137,
      "Ġresult": 1138,
      "erg": 1139,
      "ars": 1140,
      "ĠWhat": 1141,
      "Ġsmall": 1142,
      "Ġhapp": 1143,
      "Ġmonth": 1144,
      "Ġrun": 1145,
      "Ġnumber": 1146,
      "iving": 1147,
      "ered": 1148,
      "ĠTo": 1149,
      "Ġpartic": 1150,
      "Ġorgan": 1151,
      "Ġref": 1152,
      "Ġwater": 1153,
      "Ġsl": 1154,
      "Ġiss": 1155,
      "Ġpay": 1156,
      "Ġreal": 1157,
      "ĠLe": 1158,
      "Ġcent": 1159,
      "ĠWhen": 1160,
      "Ġservices": 1161,
      "Ġalways": 1162,
      "Ġpri": 1163,
      "Ġduring": 1164,
      "ĠAll": 1165,
      "Ġcost": 1166,
      "Ġprovide": 1167,
      "ton": 1168,
      "Ġwithout": 1169,
      "Ġinterest": 1170,
      "Ġfamily": 1171,
      "ross": 1172,
      "Ġinf": 1173,
      "Ġsure": 1174,
      "ern": 1175,
      "Ġpat": 1176,
      "Ġob": 1177,
      "Ġincluding": 1178,
      "Ġrest": 1179,
      "000": 1180,
      "Ġdef": 1181,
      "aut": 1182,
      "ically": 1183,
      "Ġopen": 1184,
      "Ġmust": 1185,
      "Ġproper": 1186,
      "ruct": 1187,
      "ah": 1188,
      "20": 1189,
      "Ġschool": 1190,
      "ug": 1191,
      "stand": 1192,
      "ural": 1193,
      "Ġthree": 1194,
      "ists": 1195,
      "Ġthings": 1196,
      "Ġimportant": 1197,
      "Ġint": 1198,
      "Ġcome": 1199,
      "orth": 1200,
      "thing": 1201,
      "ware": 1202,
      "ined": 1203,
      "ital": 1204,
      "ody": 1205,
      "ĠEx": 1206,
      "bers": 1207,
      "Ġstand": 1208,
      "Ġlittle": 1209,
      "Ġeffect": 1210,
      "ery": 1211,
      "Ġfact": 1212,
      "Ġdri": 1213,
      "Ġrece": 1214,
      "ĠPl": 1215,
      "Ġbetter": 1216,
      "Ġfil": 1217,
      "Ġpass": 1218,
      "ĠQ": 1219,
      "Ġresp": 1220,
      "arly": 1221,
      "Ġspec": 1222,
      "Ġperform": 1223,
      "Ġconc": 1224,
      "ling": 1225,
      "blem": 1226,
      "alk": 1227,
      "Ġclass": 1228,
      "Ġable": 1229,
      "ĠTe": 1230,
      "ock": 1231,
      "ished": 1232,
      "Ġconf": 1233,
      "Ġdist": 1234,
      "be": 1235,
      "Ġstate": 1236,
      "ĠInd": 1237,
      "Ġfriend": 1238,
      "con": 1239,
      "plo": 1240,
      "Ġsay": 1241,
      "ield": 1242,
      "Ġonline": 1243,
      "ier": 1244,
      "ute": 1245,
      "Ġcontin": 1246,
      "Ġtry": 1247,
      "ĠWith": 1248,
      "ething": 1249,
      "els": 1250,
      "ared": 1251,
      "uss": 1252,
      "Ġlight": 1253,
      "Ġquest": 1254,
      "meric": 1255,
      "Ġdirect": 1256,
      "Ġspecial": 1257,
      "Ġwebs": 1258,
      "Ġve": 1259,
      "co": 1260,
      "Ġlevel": 1261,
      "ĠShe": 1262,
      "Ġgive": 1263,
      "Ġnext": 1264,
      "ĠAt": 1265,
      "man": 1266,
      "ccess": 1267,
      "vern": 1268,
      "Ġincre": 1269,
      "ention": 1270,
      "Ġmight": 1271,
      "Ġproblem": 1272,
      "Ġsince": 1273,
      "ien": 1274,
      "Ġgrou": 1275,
      "Ġbra": 1276,
      "ients": 1277,
      "ĠIs": 1278,
      "nect": 1279,
      "dition": 1280,
      "me": 1281,
      "Ġput": 1282,
      "ately": 1283,
      "Ġcurrent": 1284,
      "Ġbook": 1285,
      "oney": 1286,
      "ploy": 1287,
      "Ġcert": 1288,
      "Ġopp": 1289,
      "att": 1290,
      "Ġsomething": 1291,
      "Ġtri": 1292,
      "Ġoper": 1293,
      "Ġwithin": 1294,
      "ider": 1295,
      "Ġaccess": 1296,
      "Ġwr": 1297,
      "Ġanother": 1298,
      "ral": 1299,
      "ĠOur": 1300,
      "Ġpower": 1301,
      "Ġmus": 1302,
      "Ġbig": 1303,
      "Ġquality": 1304,
      "orts": 1305,
      "reen": 1306,
      "ames": 1307,
      "Ġarea": 1308,
      "ential": 1309,
      "Ġdi": 1310,
      "Ġinvest": 1311,
      "au": 1312,
      "Ġlet": 1313,
      "pend": 1314,
      "eng": 1315,
      "Ġorder": 1316,
      "Ġaddition": 1317,
      "ĠAmeric": 1318,
      "Ġgrow": 1319,
      "ards": 1320,
      "Ġcontro": 1321,
      "Ġrese": 1322,
      "Ġblo": 1323,
      "rence": 1324,
      "ior": 1325,
      "Ġprofess": 1326,
      "Ġeng": 1327,
      "rist": 1328,
      "Ġphot": 1329,
      "iversity": 1330,
      "oot": 1331,
      "Ġold": 1332,
      "ivid": 1333,
      "Ġhard": 1334,
      "Ġcr": 1335,
      "Ġsecond": 1336,
      "Ġi": 1337,
      "Ġest": 1338,
      "ortun": 1339,
      "Ġless": 1340,
      "Ġroom": 1341,
      "Ġproducts": 1342,
      "ĠSp": 1343,
      "Ġweek": 1344,
      "Ġdays": 1345,
      "ision": 1346,
      "ours": 1347,
      "ense": 1348,
      "ĠZ": 1349,
      "Ġbuy": 1350,
      "Ġhead": 1351,
      "load": 1352,
      "Ġequ": 1353,
      "Ġpract": 1354,
      "Ġmov": 1355,
      "Ġjo": 1356,
      "orn": 1357,
      "joy": 1358,
      "Ġworking": 1359,
      "ĠThat": 1360,
      "Ġsite": 1361,
      "ium": 1362,
      "Ġtest": 1363,
      "ration": 1364,
      "Ġnever": 1365,
      "ted": 1366,
      "Ġsal": 1367,
      "ĠPh": 1368,
      "ism": 1369,
      "Ġgl": 1370,
      "ĠCon": 1371,
      "Ġvisit": 1372,
      "ĠSc": 1373,
      "!!": 1374,
      "oss": 1375,
      "ases": 1376,
      "ateg": 1377,
      "here": 1378,
      "tain": 1379,
      "Ġlocal": 1380,
      "Ġstudents": 1381,
      "Ġgot": 1382,
      "Ġapplic": 1383,
      "fect": 1384,
      "Ġexpl": 1385,
      "Ġintern": 1386,
      "ified": 1387,
      "Ġlooking": 1388,
      "Ġgame": 1389,
      "Ġaff": 1390,
      "ee": 1391,
      "Ġprom": 1392,
      "Ġel": 1393,
      "Ġ0": 1394,
      "Ġtoday": 1395,
      "Ġsit": 1396,
      "Ġfac": 1397,
      "ently": 1398,
      "Ġmeet": 1399,
      "ote": 1400,
      "Ġwebsite": 1401,
      "ator": 1402,
      "Ġgr": 1403,
      "Ġmaking": 1404,
      "cing": 1405,
      "Ġwin": 1406,
      "Ġfood": 1407,
      "pping": 1408,
      "Ġbro": 1409,
      "Ġprot": 1410,
      "Ġindust": 1411,
      "Ġlarge": 1412,
      "gin": 1413,
      "ission": 1414,
      "agement": 1415,
      "Ġprev": 1416,
      "ems": 1417,
      "ills": 1418,
      "iron": 1419,
      "Ġunt": 1420,
      "Ġevent": 1421,
      "Ġview": 1422,
      "ump": 1423,
      "Ġchildren": 1424,
      "ĠMy": 1425,
      "Ġchange": 1426,
      "Ġeasy": 1427,
      "Ġpop": 1428,
      "por": 1429,
      "ability": 1430,
      "ĠâĢĺ": 1431,
      "room": 1432,
      "Ġbre": 1433,
      ".\"": 1434,
      "Ġunderstand": 1435,
      "ieve": 1436,
      "Ġcomplete": 1437,
      "ify": 1438,
      "Ġneeds": 1439,
      "aterial": 1440,
      "ĠFr": 1441,
      "Ġpublic": 1442,
      "Ġcap": 1443,
      "ats": 1444,
      "ĠThese": 1445,
      "Ġchang": 1446,
      "ĠCol": 1447,
      "Ġmet": 1448,
      "ode": 1449,
      "aster": 1450,
      "Ġcourse": 1451,
      "Ġconst": 1452,
      "ĠOr": 1453,
      "Ġcheck": 1454,
      "inal": 1455,
      "Ġca": 1456,
      "Ġcreat": 1457,
      "omm": 1458,
      "lection": 1459,
      "Ġpresent": 1460,
      "Ġsuccess": 1461,
      "Ġimpro": 1462,
      "ĠCan": 1463,
      "Ġterm": 1464,
      "cent": 1465,
      "Ġtru": 1466,
      "ised": 1467,
      "Ġmoney": 1468,
      "itions": 1469,
      "ron": 1470,
      "ax": 1471,
      "ope": 1472,
      "Ġann": 1473,
      "Ġcontact": 1474,
      "ids": 1475,
      "ird": 1476,
      "Ġconnect": 1477,
      "Ġfr": 1478,
      "Ġcase": 1479,
      "cl": 1480,
      "Ġair": 1481,
      "Ġ12": 1482,
      "Ġactiv": 1483,
      "pos": 1484,
      ".,": 1485,
      "ĠRes": 1486,
      "ample": 1487,
      "ER": 1488,
      "Ġpain": 1489,
      "illion": 1490,
      "ĠUS": 1491,
      "Ġlearn": 1492,
      "Ġ18": 1493,
      "50": 1494,
      "ĠDo": 1495,
      "ably": 1496,
      "Ġname": 1497,
      "Ġpast": 1498,
      "Ġuntil": 1499,
      "Ġbas": 1500,
      "ĠBl": 1501,
      "Ġlaw": 1502,
      "Ġenjoy": 1503,
      "Ġdem": 1504,
      "Ġalong": 1505,
      "tend": 1506,
      "ret": 1507,
      "Ġaway": 1508,
      "ique": 1509,
      "Ġindivid": 1510,
      "med": 1511,
      "ĠMan": 1512,
      "Ġpersonal": 1513,
      "olution": 1514,
      "Ġhouse": 1515,
      "Ġtoget": 1516,
      "Ġtogether": 1517,
      "atter": 1518,
      "ries": 1519,
      "ization": 1520,
      "work": 1521,
      "Ġturn": 1522,
      "ĠChrist": 1523,
      "Ġ'": 1524,
      "port": 1525,
      "utes": 1526,
      "Ġoften": 1527,
      "pped": 1528,
      "Ġsing": 1529,
      "10": 1530,
      "Ġpossible": 1531,
      "Ġelect": 1532,
      "ĠJo": 1533,
      "Ġemploy": 1534,
      "Ġtreat": 1535,
      "ĠNo": 1536,
      "Ġreport": 1537,
      "Ġleg": 1538,
      "enef": 1539,
      "Ġmaterial": 1540,
      "min": 1541,
      "ering": 1542,
      "ocus": 1543,
      "Ġhum": 1544,
      "ott": 1545,
      "aring": 1546,
      "outh": 1547,
      "ains": 1548,
      "soci": 1549,
      "bo": 1550,
      "ogra": 1551,
      "Ġdetail": 1552,
      "ember": 1553,
      "ories": 1554,
      "Ġrecord": 1555,
      "Ġhist": 1556,
      "Ġperfect": 1557,
      "Ġbeaut": 1558,
      "iven": 1559,
      "ury": 1560,
      "ream": 1561,
      "ĠComm": 1562,
      "Ġgovern": 1563,
      "Ġwhy": 1564,
      "Ġcreate": 1565,
      "Ġagainst": 1566,
      "ush": 1567,
      "Ġtimes": 1568,
      "atures": 1569,
      "part": 1570,
      "Ġdev": 1571,
      "ising": 1572,
      "Ġbased": 1573,
      "Ġresearch": 1574,
      "lish": 1575,
      "itive": 1576,
      "arent": 1577,
      "ney": 1578,
      "Ġask": 1579,
      "Ġpa": 1580,
      "Ġindividual": 1581,
      "Ġcommunity": 1582,
      "hor": 1583,
      ",âĢĿ": 1584,
      "ex": 1585,
      "Ġpot": 1586,
      "Ġexpect": 1587,
      "Ġaccount": 1588,
      "veral": 1589,
      "Ġgroup": 1590,
      "ination": 1591,
      "Ġhaving": 1592,
      "fer": 1593,
      "Ġkind": 1594,
      "yle": 1595,
      "ann": 1596,
      "Ġrequire": 1597,
      "Ġmeans": 1598,
      "ived": 1599,
      "Ġprotect": 1600,
      "the": 1601,
      "ina": 1602,
      "Ġworks": 1603,
      "icle": 1604,
      "viron": 1605,
      "omen": 1606,
      "ĠCo": 1607,
      "side": 1608,
      "ĠCent": 1609,
      "pecial": 1610,
      "let": 1611,
      "Ġprice": 1612,
      "Ġinclude": 1613,
      "ĠTr": 1614,
      "Ġpar": 1615,
      "Ġbenef": 1616,
      "Ġvide": 1617,
      "Ġdra": 1618,
      "Ġbeh": 1619,
      "Ġsoft": 1620,
      "Ġside": 1621,
      "Ġmult": 1622,
      "ured": 1623,
      "Ġword": 1624,
      "Ġcontrol": 1625,
      "Ġmar": 1626,
      "Ġla": 1627,
      "oice": 1628,
      "ik": 1629,
      "Ġsw": 1630,
      "Ġtem": 1631,
      "ĠHowever": 1632,
      "Ġhot": 1633,
      "Ġbecome": 1634,
      "ency": 1635,
      "ger": 1636,
      "Ġwrit": 1637,
      "Ġclo": 1638,
      "ĠGod": 1639,
      "Ġlim": 1640,
      "ĠOne": 1641,
      "of": 1642,
      "Ġmakes": 1643,
      "rop": 1644,
      "Ġpage": 1645,
      "Ġdone": 1646,
      "aim": 1647,
      "lement": 1648,
      "Ġcomes": 1649,
      "Ġvari": 1650,
      "Ġes": 1651,
      "iting": 1652,
      "Ġspecific": 1653,
      "ready": 1654,
      "Ġfour": 1655,
      "Ġenough": 1656,
      "ley": 1657,
      "ding": 1658,
      "ows": 1659,
      "anies": 1660,
      "Ġfocus": 1661,
      "ĠUniversity": 1662,
      "Ġnight": 1663,
      "lling": 1664,
      "ken": 1665,
      "Ġmembers": 1666,
      "Ġthing": 1667,
      "ript": 1668,
      "Ġquick": 1669,
      "cu": 1670,
      "Ġdevelopment": 1671,
      "Ġ15": 1672,
      "Ġens": 1673,
      "Ġopportun": 1674,
      "urity": 1675,
      "jor": 1676,
      "aking": 1677,
      "Ġcou": 1678,
      "Ġtyp": 1679,
      "uro": 1680,
      "Ġlow": 1681,
      "oint": 1682,
      "Ġtre": 1683,
      "Ġline": 1684,
      "Ġsol": 1685,
      "Ġeduc": 1686,
      "Ġseveral": 1687,
      "ĠâĢĶ": 1688,
      "Ġmove": 1689,
      "Ġbody": 1690,
      "Ġleft": 1691,
      "Ġnon": 1692,
      "Ġtool": 1693,
      "Ġocc": 1694,
      "Ġreview": 1695,
      "aff": 1696,
      "Ġcover": 1697,
      "Ġalready": 1698,
      "'re": 1699,
      "uck": 1700,
      "ĠEng": 1701,
      "Ġothers": 1702,
      "uture": 1703,
      "oring": 1704,
      "ane": 1705,
      "br": 1706,
      "ĠAm": 1707,
      "Ġjob": 1708,
      "Ġshort": 1709,
      "vironment": 1710,
      "conom": 1711,
      "Ġhig": 1712,
      "anks": 1713,
      "Ġgetting": 1714,
      "Ġredu": 1715,
      "ĠMar": 1716,
      "Ġet": 1717,
      "Ġclean": 1718,
      "ĠAfter": 1719,
      "Ġlive": 1720,
      "Ġconsider": 1721,
      "Ġspace": 1722,
      "Ġbelow": 1723,
      "Ġcountry": 1724,
      "Ġpurch": 1725,
      "ĠSu": 1726,
      "Ġnet": 1727,
      "Ġcertain": 1728,
      "Ġacross": 1729,
      "ands": 1730,
      "fact": 1731,
      "Ġ30": 1732,
      "Ġshare": 1733,
      "Ġever": 1734,
      "urs": 1735,
      "Ġhold": 1736,
      "Ġsocial": 1737,
      "alf": 1738,
      "IN": 1739,
      "Ġmusic": 1740,
      "ged": 1741,
      "ored": 1742,
      "ĠFl": 1743,
      "irm": 1744,
      "Ġcompanies": 1745,
      "Ġce": 1746,
      "Ġfore": 1747,
      "ither": 1748,
      "ĠApp": 1749,
      "Ġfav": 1750,
      "Ġmean": 1751,
      "inc": 1752,
      "urance": 1753,
      "Ġkey": 1754,
      "ots": 1755,
      "Ġboo": 1756,
      "Ġanal": 1757,
      "Ġbit": 1758,
      "ethod": 1759,
      "ully": 1760,
      "Ġfar": 1761,
      "Ġorig": 1762,
      "Ġmajor": 1763,
      "Ġcompet": 1764,
      "urther": 1765,
      "Ġ11": 1766,
      "Ġoffers": 1767,
      "Ġfund": 1768,
      "ĠMay": 1769,
      "Ġdeal": 1770,
      "Ġpack": 1771,
      "Ġste": 1772,
      "ograph": 1773,
      "Ġrange": 1774,
      "ides": 1775,
      "Ġseason": 1776,
      "ances": 1777,
      "Ġvers": 1778,
      "ai": 1779,
      "ift": 1780,
      "by": 1781,
      "Ġmind": 1782,
      "ĠCar": 1783,
      "Ġdoing": 1784,
      "Ġindustry": 1785,
      "ĠEn": 1786,
      "Ġpriv": 1787,
      "Ġfuture": 1788,
      "Ġinstall": 1789,
      "ches": 1790,
      "par": 1791,
      "ones": 1792,
      "wards": 1793,
      "Ġleast": 1794,
      "oose": 1795,
      "Ġident": 1796,
      "ribut": 1797,
      "Ġdeli": 1798,
      "Ġparticular": 1799,
      "err": 1800,
      "ES": 1801,
      "Ġexample": 1802,
      "ording": 1803,
      "19": 1804,
      "Ġris": 1805,
      "ners": 1806,
      "most": 1807,
      "Ġwind": 1808,
      "Ġstarted": 1809,
      "Ġstep": 1810,
      "Ġcamp": 1811,
      "osed": 1812,
      "ĠInst": 1813,
      "ĠPr": 1814,
      "Ġhours": 1815,
      "Ġactually": 1816,
      "Ġonce": 1817,
      "Ġstory": 1818,
      "Ġess": 1819,
      "Ġsum": 1820,
      "Ġproperty": 1821,
      "ĠCont": 1822,
      "ec": 1823,
      "lf": 1824,
      "Ġvalue": 1825,
      "Ġinvol": 1826,
      "ĠIntern": 1827,
      "ĠYour": 1828,
      "Ġcomb": 1829,
      "Ġreason": 1830,
      "Ġenerg": 1831,
      "ĠTra": 1832,
      "Ġcity": 1833,
      "ference": 1834,
      "Ġreturn": 1835,
      "30": 1836,
      "not": 1837,
      "iful": 1838,
      "ilities": 1839,
      "go": 1840,
      "Ġbring": 1841,
      "âĢĶ": 1842,
      "ĠSy": 1843,
      "Ġchall": 1844,
      "ON": 1845,
      "Ġexc": 1846,
      "ources": 1847,
      "atic": 1848,
      "aces": 1849,
      "Ġemail": 1850,
      "ource": 1851,
      "Ġbrand": 1852,
      "Ġcustomers": 1853,
      "'m": 1854,
      "Ġfeatures": 1855,
      "Ġbuilding": 1856,
      "for": 1857,
      "ĠÂ": 1858,
      "Ġstudy": 1859,
      "Ġamount": 1860,
      "Ġtechnology": 1861,
      "fort": 1862,
      "duct": 1863,
      "Ġgovernment": 1864,
      "Ġsuper": 1865,
      "Ġcalled": 1866,
      "Ġdidn": 1867,
      "resent": 1868,
      "Ġrecomm": 1869,
      "Ġenvironment": 1870,
      "Ġwa": 1871,
      "bal": 1872,
      "ĠComp": 1873,
      "cle": 1874,
      "Ġrespons": 1875,
      "icy": 1876,
      "lished": 1877,
      "Ġ2018": 1878,
      "Ġstrong": 1879,
      "Ġprofessional": 1880,
      "arning": 1881,
      "ĠChe": 1882,
      "atural": 1883,
      "ster": 1884,
      "Ġrecommend": 1885,
      "ilt": 1886,
      "cell": 1887,
      "'ve": 1888,
      "enn": 1889,
      "Ġminutes": 1890,
      "Ġmil": 1891,
      "Ġfield": 1892,
      "Ġey": 1893,
      "Ġfriends": 1894,
      "ino": 1895,
      "Ġclose": 1896,
      "Ġz": 1897,
      "Ġmethod": 1898,
      "ips": 1899,
      "ĠServ": 1900,
      "iod": 1901,
      "ched": 1902,
      "Ġdr": 1903,
      "Ġplease": 1904,
      "Ġtax": 1905,
      "Ġenergy": 1906,
      "ĠGu": 1907,
      "Ġrepl": 1908,
      "sh": 1909,
      "Ġbar": 1910,
      "ĠWor": 1911,
      "'ll": 1912,
      "Ġoffic": 1913,
      "Ġdiscuss": 1914,
      "Ġbed": 1915,
      "Ġvol": 1916,
      "Ġthought": 1917,
      "Ġmonths": 1918,
      "ffic": 1919,
      "Ġaddress": 1920,
      "ister": 1921,
      "Ġresults": 1922,
      "Ġbegin": 1923,
      "Ġcharact": 1924,
      "light": 1925,
      "Ġabove": 1926,
      "Ġmom": 1927,
      "Ġtraining": 1928,
      "Ġgiven": 1929,
      "Ġdoesn": 1930,
      "Ġmen": 1931,
      "Ġheart": 1932,
      "ĠRo": 1933,
      "Ġquestions": 1934,
      "Ġcut": 1935,
      ",\"": 1936,
      "AN": 1937,
      "ape": 1938,
      "Ġstay": 1939,
      "ledge": 1940,
      "ancial": 1941,
      "Ġmanagement": 1942,
      "ĠNe": 1943,
      "Ġknown": 1944,
      "Ġcra": 1945,
      "Ġyoung": 1946,
      "Ġrele": 1947,
      "ians": 1948,
      "AT": 1949,
      "ĠDes": 1950,
      "Ġsearch": 1951,
      "Ġpercent": 1952,
      "idd": 1953,
      "Ġvideo": 1954,
      "ply": 1955,
      "Ġeverything": 1956,
      "Ġpict": 1957,
      "ĠX": 1958,
      "Ġstore": 1959,
      "Ġ199": 1960,
      "pecially": 1961,
      "cks": 1962,
      "Ġsingle": 1963,
      "osp": 1964,
      "Ġpie": 1965,
      "Ġport": 1966,
      "Ġtot": 1967,
      "Ġpress": 1968,
      "crib": 1969,
      "over": 1970,
      "Ġsound": 1971,
      "Ġfollowing": 1972,
      "ead": 1973,
      "Ġcal": 1974,
      "ensive": 1975,
      "Ġweb": 1976,
      "Ġprovides": 1977,
      "app": 1978,
      "ĠSte": 1979,
      "ĠMed": 1980,
      "fully": 1981,
      "Ġwon": 1982,
      "ulation": 1983,
      "Ġcontent": 1984,
      "Th": 1985,
      "Ġsays": 1986,
      "Ġmess": 1987,
      "unch": 1988,
      "sw": 1989,
      "Ġearly": 1990,
      "Ġcult": 1991,
      "Ġ100": 1992,
      "ĠFe": 1993,
      "Ġdiff": 1994,
      "Ġflo": 1995,
      "une": 1996,
      "mber": 1997,
      "rap": 1998,
      "ĠEuro": 1999,
      "ued": 2000,
      "Ġwond": 2001,
      "Ġtravel": 2002,
      "ume": 2003,
      "Ġcame": 2004,
      "Ġmot": 2005,
      "Ġsimple": 2006,
      "Ġhope": 2007,
      "Ġmillion": 2008,
      "Ġant": 2009,
      "acy": 2010,
      "Ġwhether": 2011,
      "Ġclaim": 2012,
      "Ġenc": 2013,
      "Ġtype": 2014,
      "Ġareas": 2015,
      "ruction": 2016,
      "Ġimprove": 2017,
      "Ġvarious": 2018,
      "Ġissues": 2019,
      "Ġcred": 2020,
      "Ġwhole": 2021,
      "ring": 2022,
      "hers": 2023,
      "imate": 2024,
      "Ġyet": 2025,
      "ĠBo": 2026,
      "Ġhappen": 2027,
      "ental": 2028,
      "Ġauthor": 2029,
      "AR": 2030,
      "ges": 2031,
      "asing": 2032,
      "Ġtook": 2033,
      "ĠMe": 2034,
      "ication": 2035,
      "cript": 2036,
      "ĠAmerican": 2037,
      "Ġperformance": 2038,
      "idence": 2039,
      "Ġdue": 2040,
      "illed": 2041,
      "Ġrequired": 2042,
      "Ġtell": 2043,
      "Ġdownload": 2044,
      "Ġselect": 2045,
      "Ġmedia": 2046,
      "Ġsize": 2047,
      "ĠNot": 2048,
      "Ġexperien": 2049,
      "Ġmeas": 2050,
      "Ġupd": 2051,
      "hing": 2052,
      "Ġperiod": 2053,
      "iday": 2054,
      "rict": 2055,
      "Ġsomeone": 2056,
      "gs": 2057,
      "Ġcommon": 2058,
      "AS": 2059,
      "Ġeconom": 2060,
      "abor": 2061,
      "Ġdam": 2062,
      "pro": 2063,
      "Ġ,": 2064,
      "Ġappear": 2065,
      "uff": 2066,
      "lege": 2067,
      "wh": 2068,
      "Ġrelations": 2069,
      "12": 2070,
      "Ġwomen": 2071,
      "ained": 2072,
      "Ġidea": 2073,
      "ĠNow": 2074,
      "ĠUnited": 2075,
      "Ġnews": 2076,
      "Ġmach": 2077,
      "Ġcustomer": 2078,
      "Ġamong": 2079,
      "ibility": 2080,
      "Ġcond": 2081,
      "ony": 2082,
      "ogn": 2083,
      "ufact": 2084,
      "though": 2085,
      "Ġfurther": 2086,
      "Ġmanag": 2087,
      "Ġexam": 2088,
      "Ġfre": 2089,
      "Ġassist": 2090,
      "Ġdesigned": 2091,
      "Ġoffice": 2092,
      "yl": 2093,
      "ĠPlease": 2094,
      "hn": 2095,
      "ĠSome": 2096,
      "mb": 2097,
      "Ġtal": 2098,
      "icult": 2099,
      "aps": 2100,
      "gr": 2101,
      "vert": 2102,
      "ww": 2103,
      "omes": 2104,
      "Ġaud": 2105,
      "Ġunique": 2106,
      "Ġeither": 2107,
      "Ġliving": 2108,
      "Ġ16": 2109,
      "Ġtext": 2110,
      "Ġcard": 2111,
      "Ġtaking": 2112,
      "Ġbeautiful": 2113,
      "ggest": 2114,
      "tt": 2115,
      "Ġ2017": 2116,
      "Ġparticip": 2117,
      "Ġhuman": 2118,
      "Ġensure": 2119,
      "eral": 2120,
      "Ġoil": 2121,
      "Ġoptions": 2122,
      "Ġage": 2123,
      "itted": 2124,
      "Ġnecess": 2125,
      "irt": 2126,
      "Ġprob": 2127,
      "Ġtable": 2128,
      "Ġlater": 2129,
      "ĠWhile": 2130,
      "Ġstaff": 2131,
      "Ġneeded": 2132,
      "Ġphys": 2133,
      "ĠIm": 2134,
      "Ġseen": 2135,
      "che": 2136,
      "ask": 2137,
      "Ġentire": 2138,
      "play": 2139,
      "Ġchoose": 2140,
      "ification": 2141,
      "ĠEurope": 2142,
      "Ġhost": 2143,
      "come": 2144,
      "reet": 2145,
      "Ġincludes": 2146,
      "Ġ14": 2147,
      "Ġcomput": 2148,
      "Ġeffective": 2149,
      "Ġespecially": 2150,
      "nov": 2151,
      "Ġstrateg": 2152,
      "Ġfront": 2153,
      "Ġnear": 2154,
      "augh": 2155,
      "Ġprep": 2156,
      "Ġquite": 2157,
      "Ġface": 2158,
      "Ġparent": 2159,
      "son": 2160,
      "Ġsignific": 2161,
      "ables": 2162,
      "Ġinsurance": 2163,
      "gra": 2164,
      "Ġseries": 2165,
      "Ġsuggest": 2166,
      "book": 2167,
      "Ġprovided": 2168,
      "Ġdig": 2169,
      "Ġ/": 2170,
      "lex": 2171,
      "ites": 2172,
      "ided": 2173,
      "ĠSec": 2174,
      "Ġach": 2175,
      "urch": 2176,
      "selves": 2177,
      "resh": 2178,
      "Ġsystems": 2179,
      "Ġ[": 2180,
      "Ġbelieve": 2181,
      "Ġwent": 2182,
      "aur": 2183,
      "Ġhistory": 2184,
      "ators": 2185,
      "Ġtour": 2186,
      "iously": 2187,
      "rew": 2188,
      "Ġetc": 2189,
      "nam": 2190,
      "ĠSchool": 2191,
      "Ġcollect": 2192,
      "Ġfunction": 2193,
      "Ġnatural": 2194,
      "ili": 2195,
      "Ġglo": 2196,
      "ilar": 2197,
      "Ġpotential": 2198,
      "Ġeveryone": 2199,
      "cer": 2200,
      "Ġfilm": 2201,
      "ler": 2202,
      "Ġprint": 2203,
      "itch": 2204,
      "Ġhy": 2205,
      "ctor": 2206,
      "Ġlikely": 2207,
      "Ġhalf": 2208,
      "Ġexist": 2209,
      "Ġcomfort": 2210,
      "ief": 2211,
      "Ġmag": 2212,
      "Ġfinancial": 2213,
      "Ġrepresent": 2214,
      "gest": 2215,
      "ĠCal": 2216,
      "Ġinit": 2217,
      "Ġsoftware": 2218,
      "oon": 2219,
      "ĠJust": 2220,
      "Ġphone": 2221,
      "Ġyourself": 2222,
      "Ġengine": 2223,
      "ĠMin": 2224,
      "Ġsimply": 2225,
      "OR": 2226,
      "Ġdocu": 2227,
      "Ġ24": 2228,
      "ĠBy": 2229,
      "azing": 2230,
      "Ġself": 2231,
      "Ġspend": 2232,
      "Ġdifficult": 2233,
      "aching": 2234,
      "Ġalmost": 2235,
      "Ġcontract": 2236,
      "Ġwide": 2237,
      "ĠDis": 2238,
      "rodu": 2239,
      "Ġmiss": 2240,
      "Ġcolor": 2241,
      "Ġknowledge": 2242,
      "ball": 2243,
      "Ġ13": 2244,
      "Ġquestion": 2245,
      "ls": 2246,
      "Ġpan": 2247,
      "Ġclear": 2248,
      "xim": 2249,
      "ĠCity": 2250,
      "Ġ17": 2251,
      "Ġdou": 2252,
      "Ġdeterm": 2253,
      "Ġbreak": 2254,
      "Ġele": 2255,
      "Ġstyle": 2256,
      "ĠPe": 2257,
      "Ġaccept": 2258,
      "inking": 2259,
      "Ġideas": 2260,
      "Ġcir": 2261,
      "ĠGo": 2262,
      "Ġfive": 2263,
      "Ġrequest": 2264,
      "Ġland": 2265,
      "Ġpick": 2266,
      "astic": 2267,
      "Ġposition": 2268,
      "ĠRep": 2269,
      "Ġ25": 2270,
      "ĠDr": 2271,
      "af": 2272,
      "Ġanything": 2273,
      "ĠAust": 2274,
      "Ġproblems": 2275,
      "Ġsecurity": 2276,
      "ĠKe": 2277,
      "Ġevents": 2278,
      "Ġfall": 2279,
      "obile": 2280,
      "11": 2281,
      "Ġfavor": 2282,
      "ops": 2283,
      "Ġabs": 2284,
      "uation": 2285,
      "Ġapplication": 2286,
      "Ġcrit": 2287,
      "Ġhowever": 2288,
      "Ġpopular": 2289,
      "Ġwriting": 2290,
      "Ġcreated": 2291,
      "Ġwall": 2292,
      "Ġagree": 2293,
      "Ġways": 2294,
      "rown": 2295,
      "Ġ50": 2296,
      "Ġsoon": 2297,
      "Ġregard": 2298,
      "Ġreceive": 2299,
      ".âĢĿ": 2300,
      "Ġdetails": 2301,
      "Ġprojects": 2302,
      "Ġrelationship": 2303,
      "Ġwar": 2304,
      "ĠPer": 2305,
      "Ġcell": 2306,
      "Ġclients": 2307,
      "Ġrisk": 2308,
      "Ġred": 2309,
      "ĠCount": 2310,
      "Ġsignificant": 2311,
      "ires": 2312,
      "Ġsafe": 2313,
      "face": 2314,
      "We": 2315,
      "Ġmanufact": 2316,
      "Ġmodel": 2317,
      "Ġassoci": 2318,
      "Ġcoll": 2319,
      "Ġseem": 2320,
      "Ġextra": 2321,
      "Ġthird": 2322,
      "Ġlearning": 2323,
      "Ġforward": 2324,
      "ights": 2325,
      "rect": 2326,
      "Ġmor": 2327,
      "Ġfail": 2328,
      "Ġansw": 2329,
      "Ġadded": 2330,
      "oid": 2331,
      "ees": 2332,
      "ED": 2333,
      "Ġ2016": 2334,
      "back": 2335,
      "Ġgames": 2336,
      "ung": 2337,
      "Ġchanges": 2338,
      "Ġfit": 2339,
      "ĠStud": 2340,
      "icro": 2341,
      "Ġsubject": 2342,
      "etimes": 2343,
      "ibr": 2344,
      "Ġfire": 2345,
      "Ġwatch": 2346,
      "uge": 2347,
      "Ġautom": 2348,
      "itc": 2349,
      "ises": 2350,
      "ĠAg": 2351,
      "Ġuser": 2352,
      "Ġusually": 2353,
      "ipment": 2354,
      "Ġwhite": 2355,
      "angu": 2356,
      "reme": 2357,
      "Ġready": 2358,
      "atur": 2359,
      "do": 2360,
      "aining": 2361,
      "iple": 2362,
      "Ġissue": 2363,
      "ĠQu": 2364,
      "elt": 2365,
      "Ġtaken": 2366,
      "Ġroad": 2367,
      "Ġago": 2368,
      "ĠState": 2369,
      "ĠHis": 2370,
      "Ġdeb": 2371,
      "anced": 2372,
      "Ġstra": 2373,
      "Ġtreatment": 2374,
      "Ġfoot": 2375,
      "Ġfast": 2376,
      "val": 2377,
      "time": 2378,
      "ze": 2379,
      "Ġfeature": 2380,
      "Ġincrease": 2381,
      "new": 2382,
      "ĠJan": 2383,
      "ĠNational": 2384,
      "Ġrather": 2385,
      "Ġveh": 2386,
      "ĠJohn": 2387,
      "Ġblack": 2388,
      "ille": 2389,
      "EN": 2390,
      "Ġthroughout": 2391,
      "iver": 2392,
      "opy": 2393,
      "Ġadditional": 2394,
      "pper": 2395,
      "Ġut": 2396,
      "Ġimpact": 2397,
      "olutions": 2398,
      "IS": 2399,
      "Ġdepend": 2400,
      "Ġbox": 2401,
      "ĠGra": 2402,
      "Ġhigher": 2403,
      "ĠDon": 2404,
      "ok": 2405,
      "Ġcurrently": 2406,
      "15": 2407,
      "ĠPart": 2408,
      "Ġtakes": 2409,
      "arget": 2410,
      "ĠSouth": 2411,
      "Ġstruct": 2412,
      "ĠBr": 2413,
      "mit": 2414,
      "icated": 2415,
      "ĠGe": 2416,
      "ux": 2417,
      "Ġeducation": 2418,
      "ĠPre": 2419,
      "Ġestab": 2420,
      "Ġda": 2421,
      "Ġtrack": 2422,
      "Ġjour": 2423,
      "80": 2424,
      "Ġlat": 2425,
      "ĠSm": 2426,
      "ĠHere": 2427,
      "ĠNorth": 2428,
      "Ġsho": 2429,
      "Ġopportunity": 2430,
      "Ġdel": 2431,
      "Ġpaper": 2432,
      "Ġelse": 2433,
      "Ġparty": 2434,
      "Ġsales": 2435,
      "Ġconsum": 2436,
      "Ġstat": 2437,
      "where": 2438,
      "Ġskin": 2439,
      "Ġtrying": 2440,
      "umb": 2441,
      "Ġusers": 2442,
      "Ġdate": 2443,
      "verage": 2444,
      "Ġwalk": 2445,
      "Ġtradition": 2446,
      "Ġkids": 2447,
      "Ġoutside": 2448,
      "Ġwonder": 2449,
      "Ġcoming": 2450,
      "empt": 2451,
      "used": 2452,
      "Ġ2019": 2453,
      "Ġpractice": 2454,
      "Ġvariety": 2455,
      "Ġmatter": 2456,
      "rie": 2457,
      "Ġaction": 2458,
      "Ġwanted": 2459,
      "ĠInc": 2460,
      "Ġdefin": 2461,
      "medi": 2462,
      "ĠWill": 2463,
      "Ġregular": 2464,
      "Ġskills": 2465,
      "Ġpoints": 2466,
      "Ġcannot": 2467,
      "ival": 2468,
      "ĠApr": 2469,
      "Ġsend": 2470,
      "Ġlink": 2471,
      "âĢĵ": 2472,
      "Ġprivate": 2473,
      "oura": 2474,
      "Ġchoice": 2475,
      "Ġsimilar": 2476,
      "Ġtalk": 2477,
      "Ġsle": 2478,
      "ĠTH": 2479,
      "Ġcontinue": 2480,
      "Ġbad": 2481,
      "Ġrespect": 2482,
      "ules": 2483,
      "Ġimage": 2484,
      "gle": 2485,
      "Ġfinal": 2486,
      "hy": 2487,
      "ried": 2488,
      "Ġtou": 2489,
      "Ġlay": 2490,
      "Ġprobably": 2491,
      "Ġinsp": 2492,
      "ĠBu": 2493,
      "Ġrate": 2494,
      "Ġwords": 2495,
      "ĠAb": 2496,
      "ĠMr": 2497,
      "Ġbott": 2498,
      "Ġactivities": 2499,
      "Ġloss": 2500,
      "Ġstandard": 2501,
      "ĠÐ": 2502,
      "Ġpret": 2503,
      "apt": 2504,
      "Ġx": 2505,
      "Ġinside": 2506,
      "Ġhappy": 2507,
      "Ġisn": 2508,
      "eter": 2509,
      "Ġinfl": 2510,
      "Ġrole": 2511,
      "Ġsent": 2512,
      "ha": 2513,
      "Ġoriginal": 2514,
      "AL": 2515,
      "Ġrecogn": 2516,
      "itting": 2517,
      "IT": 2518,
      "Ġreceived": 2519,
      "??": 2520,
      "ĠPar": 2521,
      "Ġanim": 2522,
      "ĠThanks": 2523,
      "vent": 2524,
      "itor": 2525,
      "IC": 2526,
      "Ġfile": 2527,
      "itten": 2528,
      "aving": 2529,
      "head": 2530,
      "Ġexcell": 2531,
      "Ġlocated": 2532,
      "Ġgeneral": 2533,
      "Ġeasily": 2534,
      "ĠFrom": 2535,
      "Ġlonger": 2536,
      "ĠTw": 2537,
      "Ġreading": 2538,
      "Ġmaterials": 2539,
      "Ġaffect": 2540,
      "ison": 2541,
      "ĠYork": 2542,
      "Ġattend": 2543,
      "minist": 2544,
      "itchen": 2545,
      "Ġitems": 2546,
      "ĠUs": 2547,
      "Ġtrue": 2548,
      "ĠWorld": 2549,
      "Ġweight": 2550,
      "Ġprior": 2551,
      "Ġmaintain": 2552,
      "Ġnice": 2553,
      "atform": 2554,
      "ĠReg": 2555,
      "put": 2556,
      "Ġtold": 2557,
      "Ġexact": 2558,
      "Ġstop": 2559,
      "Ġeffic": 2560,
      "ĠFin": 2561,
      "Ġconcern": 2562,
      "Ġheld": 2563,
      "Ġamazing": 2564,
      "Ġconditions": 2565,
      "aced": 2566,
      "Ġpretty": 2567,
      "Ġapply": 2568,
      "18": 2569,
      "Ġcool": 2570,
      "Ġversion": 2571,
      "ĠBar": 2572,
      "Ġproduction": 2573,
      "Ġrunning": 2574,
      "itut": 2575,
      "Ġmember": 2576,
      "Ġworth": 2577,
      "Ġquickly": 2578,
      "ĠEm": 2579,
      "Ġbuilt": 2580,
      "Ġill": 2581,
      "ceed": 2582,
      "ĠAcc": 2583,
      "Ġannoun": 2584,
      "Ġblog": 2585,
      "hib": 2586,
      "Ġtotal": 2587,
      "ĠMc": 2588,
      "Ġnorm": 2589,
      "Ġpolicy": 2590,
      "Ġcosts": 2591,
      "ression": 2592,
      "Ġcharacter": 2593,
      "Ġaccording": 2594,
      "Ġapproach": 2595,
      "Ġbooks": 2596,
      "ĠHigh": 2597,
      "Ġsave": 2598,
      "ground": 2599,
      "Ġmarketing": 2600,
      "Ġinde": 2601,
      "Ġmedical": 2602,
      "Ġvia": 2603,
      "ĠJu": 2604,
      "Ġsaf": 2605,
      "Ġleave": 2606,
      "hold": 2607,
      "60": 2608,
      "izing": 2609,
      "ĠBra": 2610,
      "oud": 2611,
      "pri": 2612,
      "inks": 2613,
      "Ġhon": 2614,
      "ole": 2615,
      "Ġofficial": 2616,
      "Ġobject": 2617,
      "Ã©": 2618,
      "Ġ#": 2619,
      "ĠStates": 2620,
      "Ġwood": 2621,
      "Ġweeks": 2622,
      "Ġdeg": 2623,
      "Ġshows": 2624,
      "Ġsummer": 2625,
      "Ġcode": 2626,
      "Ġfirm": 2627,
      "Ġcoun": 2628,
      "....": 2629,
      "In": 2630,
      "era": 2631,
      "ox": 2632,
      "Ġground": 2633,
      "Ġsun": 2634,
      "Ġupon": 2635,
      "Ġmodern": 2636,
      "Ġdrive": 2637,
      "Ġrecent": 2638,
      "Ġgen": 2639,
      "Ġswe": 2640,
      "Ġbal": 2641,
      "Ġmix": 2642,
      "Ġhol": 2643,
      "Ġrelated": 2644,
      "Ġsix": 2645,
      "Ġ2015": 2646,
      "Ġpolit": 2647,
      "idge": 2648,
      "Ġlower": 2649,
      "Ġteac": 2650,
      "Ġgrowth": 2651,
      "Ġincluded": 2652,
      "aging": 2653,
      "Ġsolution": 2654,
      "Ġallows": 2655,
      "oman": 2656,
      "Ġspeed": 2657,
      "airs": 2658,
      "AC": 2659,
      "Ġfig": 2660,
      "Ġinternational": 2661,
      "Ġterms": 2662,
      "Ġcredit": 2663,
      "Ġlatest": 2664,
      "--": 2665,
      "Ġrad": 2666,
      "ĠThen": 2667,
      "Ġanyone": 2668,
      "This": 2669,
      "ĠAf": 2670,
      "Ġsens": 2671,
      "ĠArt": 2672,
      "Ġtools": 2673,
      "atory": 2674,
      "iring": 2675,
      "Ġneg": 2676,
      "ĠOct": 2677,
      "ĠAct": 2678,
      "Ġnecessary": 2679,
      "Ġcause": 2680,
      "Ġdom": 2681,
      "ĠUK": 2682,
      "icles": 2683,
      "ecut": 2684,
      "ese": 2685,
      "Ġbase": 2686,
      "Ġproviding": 2687,
      "Ġarticle": 2688,
      "ening": 2689,
      "adem": 2690,
      "Ġchalleng": 2691,
      "Ġrecently": 2692,
      "Ġflow": 2693,
      "Ġsell": 2694,
      "Ġfa": 2695,
      "Ġtarget": 2696,
      "Ġworked": 2697,
      "Ġbehind": 2698,
      "Ġcouple": 2699,
      "Ġlives": 2700,
      "earch": 2701,
      "Ġpurchase": 2702,
      "Ġequipment": 2703,
      "based": 2704,
      "erc": 2705,
      "ĠDep": 2706,
      "Ġbath": 2707,
      "Ġstri": 2708,
      "ĠCanad": 2709,
      "Ġtypes": 2710,
      "Ġcondition": 2711,
      "ĠAustral": 2712,
      "reg": 2713,
      "ĠCor": 2714,
      "ĠCenter": 2715,
      "Ġboard": 2716,
      "Ġcy": 2717,
      "Ġoption": 2718,
      "ĠPol": 2719,
      "ysis": 2720,
      "ublic": 2721,
      "ĠApril": 2722,
      "\".": 2723,
      "ĠWest": 2724,
      "Ġtown": 2725,
      "ĠPres": 2726,
      "RE": 2727,
      "Ġprograms": 2728,
      "ĠSw": 2729,
      "Ġpatients": 2730,
      "pose": 2731,
      "ĠPark": 2732,
      "Ġcollection": 2733,
      "my": 2734,
      "Ġstock": 2735,
      "ĠOff": 2736,
      "irit": 2737,
      "ipe": 2738,
      "ĠOf": 2739,
      "iter": 2740,
      "ĠAut": 2741,
      "urg": 2742,
      "Ġability": 2743,
      "iol": 2744,
      "Ġones": 2745,
      "ively": 2746,
      "na": 2747,
      "nal": 2748,
      "Ġ2014": 2749,
      "Ġnetwork": 2750,
      "ma": 2751,
      "Ġnothing": 2752,
      "Ġasked": 2753,
      "aby": 2754,
      "uary": 2755,
      "Ġseems": 2756,
      "Ġ40": 2757,
      "Ġsong": 2758,
      "Ġplans": 2759,
      "ĠAlso": 2760,
      "Ġsepar": 2761,
      "ĠMore": 2762,
      "gu": 2763,
      "Ġgoal": 2764,
      "just": 2765,
      "Ġsat": 2766,
      "Ġcele": 2767,
      "ham": 2768,
      "Ġlooks": 2769,
      "Ġsale": 2770,
      "Ġlangu": 2771,
      "ĠMost": 2772,
      "Ġdest": 2773,
      "Ġarri": 2774,
      "Ġleaders": 2775,
      "ĠInt": 2776,
      "Ġparts": 2777,
      "Ġprices": 2778,
      "Ġcook": 2779,
      "Ġintrodu": 2780,
      "Ġsafety": 2781,
      "istic": 2782,
      "cription": 2783,
      "Ġclick": 2784,
      "erve": 2785,
      "Ġdisplay": 2786,
      "ana": 2787,
      "cil": 2788,
      "Ġlic": 2789,
      "Ġlocation": 2790,
      "ters": 2791,
      "wor": 2792,
      "Ġbi": 2793,
      "ky": 2794,
      "ached": 2795,
      "Ġspeak": 2796,
      "Ġcomputer": 2797,
      "Ġhair": 2798,
      "ĠEd": 2799,
      "year": 2800,
      "nds": 2801,
      "Ġexpert": 2802,
      "Ġstudent": 2803,
      "Ġarr": 2804,
      "ĠGr": 2805,
      "Ġresources": 2806,
      "Ġfeed": 2807,
      "Ġcountries": 2808,
      "Ġprim": 2809,
      "Ġple": 2810,
      "anc": 2811,
      "Ġremov": 2812,
      "Ġplatform": 2813,
      "Ðµ": 2814,
      "40": 2815,
      "Ġfresh": 2816,
      "Ġdescrib": 2817,
      "Ġlevels": 2818,
      "reng": 2819,
      "ishing": 2820,
      "Ġdeep": 2821,
      "Ġplant": 2822,
      "Ġsche": 2823,
      "Ġtit": 2824,
      "Ġrent": 2825,
      "ĠHar": 2826,
      "itation": 2827,
      "vey": 2828,
      "Ġpers": 2829,
      "Ġsqu": 2830,
      "16": 2831,
      "Ġchance": 2832,
      "Ġbenefits": 2833,
      "sc": 2834,
      "akes": 2835,
      "25": 2836,
      "ming": 2837,
      "Ġdaily": 2838,
      "Ġinj": 2839,
      "ĠAre": 2840,
      "bor": 2841,
      "Ġsense": 2842,
      "Ġemb": 2843,
      "ĠEvery": 2844,
      "Ġmeeting": 2845,
      "Ġcand": 2846,
      "17": 2847,
      "sy": 2848,
      "Ġcommer": 2849,
      "200": 2850,
      "ooking": 2851,
      "iddle": 2852,
      "Ġ...": 2853,
      "Ġrequirements": 2854,
      "Ġimmedi": 2855,
      "Ġdraw": 2856,
      "iet": 2857,
      "Ġobs": 2858,
      "Ġencoura": 2859,
      "Ġcases": 2860,
      "Ġexcellent": 2861,
      "Ġclos": 2862,
      "Ġround": 2863,
      "Ġhighly": 2864,
      "Ġcorrect": 2865,
      "Ġdecision": 2866,
      "Ġrout": 2867,
      "Ġsource": 2868,
      "ĠMarch": 2869,
      "ĠDay": 2870,
      "Ġwarm": 2871,
      "Ġmachine": 2872,
      "arth": 2873,
      "Ġfram": 2874,
      "ĠHealth": 2875,
      "Ġarch": 2876,
      "Ġmass": 2877,
      "ams": 2878,
      "ĠAir": 2879,
      "Ġlif": 2880,
      "ĠCounty": 2881,
      "cast": 2882,
      "Ġitself": 2883,
      "Ġminim": 2884,
      "Ġnational": 2885,
      "Ġhuge": 2886,
      "lier": 2887,
      "AM": 2888,
      "Ġhelps": 2889,
      "Ġlate": 2890,
      "ples": 2891,
      "lim": 2892,
      "Ġshall": 2893,
      "Ġsett": 2894,
      "mas": 2895,
      "ĠLet": 2896,
      "ivity": 2897,
      "Ġmultiple": 2898,
      "Ġwritten": 2899,
      "Ġded": 2900,
      "ĠEven": 2901,
      "Ġbud": 2902,
      "ession": 2903,
      "Ġimages": 2904,
      "Ġmoment": 2905,
      "Ġgives": 2906,
      "Ġball": 2907,
      "Ġglobal": 2908,
      "Ð¾": 2909,
      "OS": 2910,
      "mon": 2911,
      "Ġinnov": 2912,
      "ension": 2913,
      "Ġleading": 2914,
      "Ġdise": 2915,
      "Ġtrust": 2916,
      "ĠMany": 2917,
      "Ġear": 2918,
      "Ġscreen": 2919,
      "Ġparents": 2920,
      "edding": 2921,
      "Ġregist": 2922,
      "ĠAmerica": 2923,
      "Ġsolutions": 2924,
      "Ġmatch": 2925,
      "Ġaverage": 2926,
      "ĠGerm": 2927,
      "illing": 2928,
      "like": 2929,
      "Ġqual": 2930,
      "Ġthemselves": 2931,
      "Ġessential": 2932,
      "Ġlegal": 2933,
      "Ġenter": 2934,
      "Ġinstead": 2935,
      "ĠIndia": 2936,
      "Ġfavorite": 2937,
      "ĠVal": 2938,
      "ences": 2939,
      "roll": 2940,
      "ging": 2941,
      "Ġextreme": 2942,
      "OT": 2943,
      "irth": 2944,
      "Ġexcept": 2945,
      "ĠPa": 2946,
      "Ġguest": 2947,
      "Ġphotos": 2948,
      "Ġinvolved": 2949,
      "ĠAny": 2950,
      "Ġmorning": 2951,
      "Ġsection": 2952,
      "ological": 2953,
      "Ġsmo": 2954,
      "Ġdirectly": 2955,
      "atives": 2956,
      "ĠAc": 2957,
      "Ġgiving": 2958,
      "Ġdeath": 2959,
      "Ġcenter": 2960,
      "erous": 2961,
      "âĢĿ.": 2962,
      "ĠInternational": 2963,
      "apan": 2964,
      "ĠJune": 2965,
      "ĠOnce": 2966,
      "Ġcommercial": 2967,
      "Ġimplement": 2968,
      "Ġgreen": 2969,
      "Ġimm": 2970,
      "ober": 2971,
      "ctions": 2972,
      "Ġmount": 2973,
      "urer": 2974,
      "Ġtemper": 2975,
      "Ġattention": 2976,
      "ĠFirst": 2977,
      "eal": 2978,
      "Ġfix": 2979,
      "Ġwrite": 2980,
      "14": 2981,
      "Ġcam": 2982,
      "Ġmobile": 2983,
      "ĠHer": 2984,
      "hern": 2985,
      "ĠMon": 2986,
      "Ġmyself": 2987,
      "wise": 2988,
      "Ġaw": 2989,
      "Ġdoor": 2990,
      "itely": 2991,
      "Ġdigital": 2992,
      "oogle": 2993,
      "Ġlost": 2994,
      "Ġstreng": 2995,
      "ĠSept": 2996,
      "Ġtouch": 2997,
      "ĠGreat": 2998,
      "bit": 2999,
      "Ġsil": 3000,
      "Ġfully": 3001,
      "//": 3002,
      "OM": 3003,
      "isions": 3004,
      "inary": 3005,
      "13": 3006,
      "orage": 3007,
      "Ġ--": 3008,
      "Ġplaying": 3009,
      "ĠGet": 3010,
      "arter": 3011,
      "igation": 3012,
      "Ġkitchen": 3013,
      "nes": 3014,
      "ĠEl": 3015,
      "ĠNet": 3016,
      "ondon": 3017,
      "Ġtast": 3018,
      "ira": 3019,
      "Ġdru": 3020,
      "ties": 3021,
      "idered": 3022,
      "Ġcreating": 3023,
      "Ġclient": 3024,
      "Ġlimited": 3025,
      "org": 3026,
      "ĠBrit": 3027,
      "Ġpartners": 3028,
      "ĠFeb": 3029,
      "ĠThank": 3030,
      "Ġsold": 3031,
      "ĠAssoci": 3032,
      "Ġachieve": 3033,
      "Ġmention": 3034,
      "://": 3035,
      "ilies": 3036,
      "ms": 3037,
      "lied": 3038,
      "Ġcareer": 3039,
      "Ġrestaur": 3040,
      "Ġcompletely": 3041,
      "Ġpromot": 3042,
      "ĠJuly": 3043,
      "aign": 3044,
      "str": 3045,
      "OU": 3046,
      "izes": 3047,
      "Ġsurpr": 3048,
      "asons": 3049,
      "Ġtraditional": 3050,
      "Ġcat": 3051,
      "Ġattack": 3052,
      "Ġhands": 3053,
      "fl": 3054,
      "Ġsuit": 3055,
      "Ġinteresting": 3056,
      "board": 3057,
      "Ġrights": 3058,
      "Ġdeliver": 3059,
      "Ġfloor": 3060,
      "hood": 3061,
      "Ġpiece": 3062,
      "Ġblood": 3063,
      "Ġgradu": 3064,
      "aly": 3065,
      "Ġheat": 3066,
      "Ġfurn": 3067,
      "ades": 3068,
      "Ġanswer": 3069,
      "ĠDirect": 3070,
      "ressed": 3071,
      "ĠCons": 3072,
      "Ġreach": 3073,
      "ĠBus": 3074,
      "aged": 3075,
      "Ġsites": 3076,
      "onse": 3077,
      "wood": 3078,
      "Ġcarry": 3079,
      "Ġplanning": 3080,
      "Ġorganization": 3081,
      "ĠWell": 3082,
      "Ġtick": 3083,
      "Ġgir": 3084,
      "ĠSince": 3085,
      "Ġdecided": 3086,
      "mission": 3087,
      "ĠAug": 3088,
      "urb": 3089,
      "ule": 3090,
      "ĠJanuary": 3091,
      "iction": 3092,
      "Ġsuccessful": 3093,
      "iture": 3094,
      "iding": 3095,
      "ĠGl": 3096,
      "Ġcirc": 3097,
      "ny": 3098,
      "Ġdep": 3099,
      "Ġgoes": 3100,
      "Ġdamage": 3101,
      "Ġprevent": 3102,
      "ought": 3103,
      "Ġprem": 3104,
      "hest": 3105,
      "Ġconsult": 3106,
      "Ġremember": 3107,
      "Ġ21": 3108,
      "Ġbecame": 3109,
      "ĠEnglish": 3110,
      "Ġobtain": 3111,
      "ĠHome": 3112,
      "ĠJapan": 3113,
      "Ġnature": 3114,
      "Ġconsist": 3115,
      "ĠAfric": 3116,
      "Ġri": 3117,
      "Ġcommit": 3118,
      "Ġhear": 3119,
      "Ġ2013": 3120,
      "Ġpositive": 3121,
      "Ġbag": 3122,
      "hel": 3123,
      "ĠSim": 3124,
      "cies": 3125,
      "Ġwel": 3126,
      "It": 3127,
      "enge": 3128,
      "Ġavoid": 3129,
      "Ġindividuals": 3130,
      "Ġcopy": 3131,
      "agn": 3132,
      "haps": 3133,
      "Ġlab": 3134,
      "Ġinteract": 3135,
      "Ġdevice": 3136,
      "Ġcomplex": 3137,
      "uel": 3138,
      "Ġaware": 3139,
      "iles": 3140,
      "Ġexpected": 3141,
      "Ġtrip": 3142,
      "ĠSer": 3143,
      "ĠBro": 3144,
      "Ġassess": 3145,
      "idents": 3146,
      "usion": 3147,
      "Ġsaw": 3148,
      "Ġinterested": 3149,
      "arden": 3150,
      "ĠWhy": 3151,
      "Ġadvant": 3152,
      "Ġdocument": 3153,
      "ĠOctober": 3154,
      "iff": 3155,
      "aves": 3156,
      "Ġcourt": 3157,
      "Ġsometimes": 3158,
      "Ġblock": 3159,
      "Ġapplications": 3160,
      "Ġfair": 3161,
      "Ġload": 3162,
      "Ġorganiz": 3163,
      "Ġpath": 3164,
      "ĠBlack": 3165,
      "ĠDav": 3166,
      "Ġconsidered": 3167,
      "Ġregul": 3168,
      "Ġ*": 3169,
      "Ġbegan": 3170,
      "ĠHouse": 3171,
      "Ġrev": 3172,
      "partment": 3173,
      "ĠOut": 3174,
      "Ġsupply": 3175,
      "Ġplayers": 3176,
      "Ġdecor": 3177,
      "ength": 3178,
      "Ġpicture": 3179,
      "gy": 3180,
      "ara": 3181,
      "Ġdeveloped": 3182,
      "Ġstarting": 3183,
      "Ġattempt": 3184,
      "isc": 3185,
      "uses": 3186,
      "Ġglass": 3187,
      "Ġfarm": 3188,
      "avy": 3189,
      "Ġeye": 3190,
      "ications": 3191,
      "Ġrelease": 3192,
      "Ġprofession": 3193,
      "ĠSal": 3194,
      "roup": 3195,
      "Ġweeke": 3196,
      "Ġwrong": 3197,
      "Ġconcept": 3198,
      "Ġreplace": 3199,
      "ek": 3200,
      "Ġmid": 3201,
      "Ġdifference": 3202,
      "ashing": 3203,
      "Ġgroups": 3204,
      "Ġtowards": 3205,
      "Ġnote": 3206,
      "Ġcas": 3207,
      "Ġproced": 3208,
      "amb": 3209,
      "Ġconduct": 3210,
      "Ġhour": 3211,
      "Ġwal": 3212,
      "ĠSan": 3213,
      "Ġpred": 3214,
      "verse": 3215,
      "Ġpublished": 3216,
      "Ġcross": 3217,
      "arant": 3218,
      "artment": 3219,
      "reci": 3220,
      "Ġadminist": 3221,
      "dd": 3222,
      "ĠFriday": 3223,
      "ĠChina": 3224,
      "Ġlanguage": 3225,
      "ST": 3226,
      "Ġhous": 3227,
      "St": 3228,
      "Ġattract": 3229,
      "EC": 3230,
      "ĠRed": 3231,
      "Ġgrowing": 3232,
      "Ġaltern": 3233,
      "ude": 3234,
      "Ġprec": 3235,
      "Ġhealthy": 3236,
      "uth": 3237,
      "Ġconstruction": 3238,
      "ores": 3239,
      "Ġemerg": 3240,
      "Ġanalysis": 3241,
      "Ġcelebr": 3242,
      "vant": 3243,
      "rences": 3244,
      "zy": 3245,
      "Ġfine": 3246,
      "Ġdry": 3247,
      "Ġbusinesses": 3248,
      "Ġposted": 3249,
      "aches": 3250,
      "place": 3251,
      "Ġwish": 3252,
      "Ġthinking": 3253,
      "Ġaward": 3254,
      "ibly": 3255,
      "ĠGener": 3256,
      "Ġhor": 3257,
      "enty": 3258,
      "Ġpropos": 3259,
      "band": 3260,
      "Ġcontain": 3261,
      "ĠJes": 3262,
      "ica": 3263,
      "itute": 3264,
      "ffee": 3265,
      "Ġten": 3266,
      "Ġcateg": 3267,
      "Ð°": 3268,
      "Ġformer": 3269,
      "ĠWhe": 3270,
      "ĠFree": 3271,
      "ĠRuss": 3272,
      "Ġplaces": 3273,
      "Ġappropri": 3274,
      "ĠWind": 3275,
      "Ġemployees": 3276,
      "Ġguide": 3277,
      "Ġentry": 3278,
      "Ġfamilies": 3279,
      "Ġ:": 3280,
      "ĠCalif": 3281,
      "Ġactivity": 3282,
      "ĠTrans": 3283,
      "Ġsn": 3284,
      "Ġexactly": 3285,
      "ses": 3286,
      "ĠAN": 3287,
      "ker": 3288,
      "ĠCoun": 3289,
      "aries": 3290,
      "Ġdiv": 3291,
      "ama": 3292,
      "su": 3293,
      "Ġhit": 3294,
      "Ġgas": 3295,
      "Ġ198": 3296,
      "ĠPresident": 3297,
      "Ġsubs": 3298,
      "Ġli": 3299,
      "Ġ2012": 3300,
      "ĠTechn": 3301,
      "chan": 3302,
      "Ġregion": 3303,
      "Ġep": 3304,
      "ĠDesign": 3305,
      "Ġfab": 3306,
      "ĠLondon": 3307,
      "Ġ23": 3308,
      "rought": 3309,
      "Ġsleep": 3310,
      "ĠChristmas": 3311,
      "Ġcampaign": 3312,
      "orge": 3313,
      "Ġpurpose": 3314,
      "ĠCommun": 3315,
      "Ġgar": 3316,
      "ester": 3317,
      "ĠService": 3318,
      "ares": 3319,
      "ĠChar": 3320,
      "yond": 3321,
      "Ġdream": 3322,
      "Ġearn": 3323,
      "Ġmessage": 3324,
      "ris": 3325,
      "Ġfight": 3326,
      "Ġopportunities": 3327,
      "Ġviol": 3328,
      "Ġprevious": 3329,
      "Ġwonderful": 3330,
      "ption": 3331,
      "Ġge": 3332,
      "Ġmoving": 3333,
      "Ġunderstanding": 3334,
      "ĠProf": 3335,
      "ĠMus": 3336,
      "AP": 3337,
      "Ġpressure": 3338,
      "ĠWar": 3339,
      "Ġvehicle": 3340,
      "Ġdat": 3341,
      "ĠEach": 3342,
      "ned": 3343,
      "Ġ60": 3344,
      "Ġunit": 3345,
      "ĠSeptember": 3346,
      "key": 3347,
      "rial": 3348,
      "Ġsmart": 3349,
      "gram": 3350,
      "uk": 3351,
      "Ġmat": 3352,
      "Ġroll": 3353,
      "Ġ22": 3354,
      "Ġoffering": 3355,
      "ET": 3356,
      "ovember": 3357,
      "Ġsituation": 3358,
      "Ġeat": 3359,
      "Ġdefinitely": 3360,
      "ĠBusiness": 3361,
      "rast": 3362,
      "oming": 3363,
      "Ġneigh": 3364,
      "Ġinvestment": 3365,
      "Ġeffort": 3366,
      "Ġgold": 3367,
      "Ġsus": 3368,
      "Ġuses": 3369,
      "Ġcash": 3370,
      "ĠCour": 3371,
      "ĠGoogle": 3372,
      "mm": 3373,
      "Ġsubst": 3374,
      "Ġled": 3375,
      "raft": 3376,
      "Ġpattern": 3377,
      "Ġbur": 3378,
      "Ġexecut": 3379,
      "ĠRem": 3380,
      "Ġreduce": 3381,
      "Ġanaly": 3382,
      "Ġgoals": 3383,
      "Ġowners": 3384,
      "Ġappoint": 3385,
      "Ġintegr": 3386,
      "Ġphysical": 3387,
      "ĠSund": 3388,
      "Ġaim": 3389,
      "Ġult": 3390,
      "Ġdistribut": 3391,
      "ipping": 3392,
      "ornia": 3393,
      "ĠServices": 3394,
      "Ġeasier": 3395,
      "ĠDepartment": 3396,
      "cember": 3397,
      "Ġjud": 3398,
      "right": 3399,
      "Ġslow": 3400,
      "het": 3401,
      "Ġmother": 3402,
      "Ġacqu": 3403,
      "Ġfelt": 3404,
      "Ġenh": 3405,
      "ĠLa": 3406,
      "Ġwait": 3407,
      "ĠTV": 3408,
      "Ġhotel": 3409,
      "Ġconvers": 3410,
      "Ġcharge": 3411,
      "Ġpayment": 3412,
      "Ġinflu": 3413,
      "ĠAdd": 3414,
      "Ġphoto": 3415,
      "antly": 3416,
      "change": 3417,
      "ING": 3418,
      "Ġcomment": 3419,
      "Ġinternet": 3420,
      "Ġcapt": 3421,
      "Ġreleased": 3422,
      "Ġbudget": 3423,
      "off": 3424,
      "Ġerr": 3425,
      "Ġfrequ": 3426,
      "Ġbank": 3427,
      "itect": 3428,
      "pite": 3429,
      "ruary": 3430,
      "Ġsurface": 3431,
      "ection": 3432,
      "Ġoffered": 3433,
      "Ġbaby": 3434,
      "Ġexerc": 3435,
      "Ġ197": 3436,
      "ĠKing": 3437,
      "Ġoverall": 3438,
      "Ġ2011": 3439,
      "etic": 3440,
      "Ġspent": 3441,
      "porate": 3442,
      "sequ": 3443,
      "Ġinitial": 3444,
      "gar": 3445,
      "ederal": 3446,
      "Ġstorage": 3447,
      "Ġcollege": 3448,
      "Ġafford": 3449,
      "ashion": 3450,
      "Ġbroad": 3451,
      "Ġexperienced": 3452,
      "Ġsatis": 3453,
      "Ġculture": 3454,
      "Ġstuff": 3455,
      "Ġadvice": 3456,
      "Ġhistor": 3457,
      "Ġindepend": 3458,
      "inner": 3459,
      "Ġpages": 3460,
      "oms": 3461,
      "ĠNovember": 3462,
      "ĠCalifornia": 3463,
      "Ġincreasing": 3464,
      "Ġassociated": 3465,
      "rel": 3466,
      "Ġble": 3467,
      "Ġreve": 3468,
      "sp": 3469,
      "Ġdark": 3470,
      "ville": 3471,
      "Ġexisting": 3472,
      "IL": 3473,
      "ĠJesus": 3474,
      "Ġdelivery": 3475,
      "Ġtele": 3476,
      "ography": 3477,
      "ĠAlthough": 3478,
      "ĠOther": 3479,
      "Ġgets": 3480,
      "Ġschools": 3481,
      "Ġaccom": 3482,
      "Ġpaid": 3483,
      "ato": 3484,
      "Ġsurround": 3485,
      "Ġloved": 3486,
      "Ġappreci": 3487,
      "Ġbenefit": 3488,
      "cause": 3489,
      "ari": 3490,
      "Ġspot": 3491,
      "Ġmeasure": 3492,
      "olf": 3493,
      "Ġresponse": 3494,
      "olute": 3495,
      "Ġdemand": 3496,
      "urt": 3497,
      "Ġrates": 3498,
      "Ġshop": 3499,
      "Ġprefer": 3500,
      "Ġmovie": 3501,
      "ĠFace": 3502,
      "ĠIr": 3503,
      "ancy": 3504,
      "aks": 3505,
      "Ġactive": 3506,
      "Ġregarding": 3507,
      "ĠAugust": 3508,
      "ĠBest": 3509,
      "Ġcontribut": 3510,
      "duc": 3511,
      "lin": 3512,
      "Ġadult": 3513,
      "ĠInter": 3514,
      "iling": 3515,
      "arily": 3516,
      "Ġrace": 3517,
      "Ġvac": 3518,
      "Ġspirit": 3519,
      "Ġwedding": 3520,
      "Ġstru": 3521,
      "Ġaspect": 3522,
      "Ġmaxim": 3523,
      "Ġbasic": 3524,
      "'d": 3525,
      "ruit": 3526,
      "Ġtransfer": 3527,
      "ĠInternet": 3528,
      "word": 3529,
      "Ġpull": 3530,
      "oph": 3531,
      "Ġsuff": 3532,
      "Ġfeeling": 3533,
      "ID": 3534,
      "ford": 3535,
      "Ġserve": 3536,
      "ĠSee": 3537,
      "ĠEuropean": 3538,
      "Ġnormal": 3539,
      "Ġver": 3540,
      "ĠPri": 3541,
      "Ġheard": 3542,
      "ĠDecember": 3543,
      "Ġdy": 3544,
      "ĠFebruary": 3545,
      "rapy": 3546,
      "oke": 3547,
      "rench": 3548,
      "Ġeyes": 3549,
      "Ġdog": 3550,
      "Ġadvert": 3551,
      "amed": 3552,
      "ĠLaw": 3553,
      "Ġpool": 3554,
      "Ġtried": 3555,
      "Ġresponsible": 3556,
      "ĠGroup": 3557,
      "Ġimag": 3558,
      "EL": 3559,
      "Ġdevices": 3560,
      "ĠIN": 3561,
      "idential": 3562,
      "sych": 3563,
      "Ġweekend": 3564,
      "useum": 3565,
      "rows": 3566,
      "Ġlog": 3567,
      "ĠSatur": 3568,
      "ĠBel": 3569,
      "ertain": 3570,
      "Ġmeaning": 3571,
      "formation": 3572,
      "ils": 3573,
      "Ġdemon": 3574,
      "Ġstories": 3575,
      "oday": 3576,
      "Ġannual": 3577,
      "ĠEast": 3578,
      "ĠUp": 3579,
      "ĠSystem": 3580,
      "enior": 3581,
      "Ġhosp": 3582,
      "Ġeffects": 3583,
      "Ġhighest": 3584,
      "Ġborn": 3585,
      "Ġgave": 3586,
      "Ġstress": 3587,
      "ĠGold": 3588,
      "Ġoccur": 3589,
      "Ġpictures": 3590,
      "ĠTHE": 3591,
      "PS": 3592,
      "ĠPat": 3593,
      "ube": 3594,
      "Ġuseful": 3595,
      "Ġtransport": 3596,
      "Ġbasis": 3597,
      "mitted": 3598,
      "ĠRead": 3599,
      "Ġhtt": 3600,
      "ĠMich": 3601,
      "aper": 3602,
      "Ġwasn": 3603,
      "Ġadjust": 3604,
      "Ġhomes": 3605,
      "Ġindic": 3606,
      "Ġbirth": 3607,
      "attle": 3608,
      "Ġimmediately": 3609,
      "ĠMod": 3610,
      "Ġ2010": 3611,
      "Ġter": 3612,
      "lock": 3613,
      "ĠCollege": 3614,
      "Ġcertainly": 3615,
      "Ġguarant": 3616,
      "Ġshown": 3617,
      "ĠÂ£": 3618,
      "Ġweather": 3619,
      "Ġkn": 3620,
      "Ġaccur": 3621,
      "itary": 3622,
      "Ġfell": 3623,
      "Ġcompleted": 3624,
      "ett": 3625,
      "Ġcove": 3626,
      "Ġpen": 3627,
      "Ġcompared": 3628,
      "house": 3629,
      "iced": 3630,
      "Ġpowerful": 3631,
      "Ġgift": 3632,
      "Ġtruly": 3633,
      "nded": 3634,
      "Ġbehav": 3635,
      "Ġeval": 3636,
      "Ġincreased": 3637,
      "Ġreported": 3638,
      "Ġlargest": 3639,
      "Ġlack": 3640,
      "Ġstage": 3641,
      "Ġprotection": 3642,
      "Ġcollabor": 3643,
      "Ġmark": 3644,
      "ĠCle": 3645,
      "Ġlots": 3646,
      "Ġcomfortable": 3647,
      "ĠGood": 3648,
      "Ġcompon": 3649,
      "__": 3650,
      "aint": 3651,
      "body": 3652,
      "Ġ+": 3653,
      "hens": 3654,
      "Ġpolitical": 3655,
      "iam": 3656,
      "Ġnotice": 3657,
      "Ġing": 3658,
      "ĠOver": 3659,
      "ague": 3660,
      "Ġappropriate": 3661,
      "ĠClick": 3662,
      "Ġbrought": 3663,
      "Ġproduce": 3664,
      "ened": 3665,
      "Ġbottom": 3666,
      "istry": 3667,
      "ressive": 3668,
      "Ġbackground": 3669,
      "ologies": 3670,
      "Ġbeyond": 3671,
      "ida": 3672,
      "dom": 3673,
      "Ġpet": 3674,
      "Ġdress": 3675,
      "Ġemot": 3676,
      "Ġdegree": 3677,
      "ĠCompany": 3678,
      "Ġhelping": 3679,
      "ĠSunday": 3680,
      "EO": 3681,
      "Ġdro": 3682,
      "Ġoptim": 3683,
      "venue": 3684,
      "ĠDec": 3685,
      "Ġideal": 3686,
      "ĠPost": 3687,
      "Ġvict": 3688,
      "Ġbeginning": 3689,
      "Ġextremely": 3690,
      "Ġstructure": 3691,
      "Ġcards": 3692,
      "Ġallowed": 3693,
      "Ġjoin": 3694,
      "Ġcommunication": 3695,
      "Ġfeet": 3696,
      "Ġreflect": 3697,
      "Ġfinish": 3698,
      "ibrary": 3699,
      "vest": 3700,
      "reed": 3701,
      "Ġrelax": 3702,
      "Ġparticularly": 3703,
      "ders": 3704,
      "Ġnut": 3705,
      "Ġfat": 3706,
      "ager": 3707,
      "ĠSaturday": 3708,
      "Ġrespond": 3709,
      "Ġcandid": 3710,
      "Ġdead": 3711,
      "Ġefficient": 3712,
      "Ġtrade": 3713,
      "Ġdisease": 3714,
      "porary": 3715,
      "Ġnearly": 3716,
      "Ġelectric": 3717,
      "Ġsust": 3718,
      "aling": 3719,
      "umn": 3720,
      "Ġrepair": 3721,
      "lies": 3722,
      "Ġevidence": 3723,
      "Ġinterview": 3724,
      "Ġcreative": 3725,
      "Ġplayed": 3726,
      "Ġeconomic": 3727,
      "cul": 3728,
      "Ġtask": 3729,
      "door": 3730,
      "ĠMarket": 3731,
      "22": 3732,
      "ulf": 3733,
      "Ġsecure": 3734,
      "Ġchallenge": 3735,
      "ĠOp": 3736,
      "Ġbelie": 3737,
      "ĠIndian": 3738,
      "Ġidentify": 3739,
      "acity": 3740,
      "Ġmatt": 3741,
      "erved": 3742,
      "ĠEduc": 3743,
      "Wh": 3744,
      "imin": 3745,
      "Ġ27": 3746,
      "ronic": 3747,
      "Ġdouble": 3748,
      "col": 3749,
      "Ġì": 3750,
      "Ġsetting": 3751,
      "oly": 3752,
      "Ġband": 3753,
      "Ġdoll": 3754,
      "Ġknew": 3755,
      "Ġthous": 3756,
      "Ġextend": 3757,
      "Ġtechnical": 3758,
      "Ġutil": 3759,
      "ancing": 3760,
      "Ġreasons": 3761,
      "icks": 3762,
      "Ġreli": 3763,
      "Ġguid": 3764,
      "ĠProgram": 3765,
      "ĠPal": 3766,
      "Ġrules": 3767,
      "Ġhelped": 3768,
      "Ġchanged": 3769,
      "ĠIS": 3770,
      "Ġclin": 3771,
      "Ġselection": 3772,
      "Ġinstruct": 3773,
      "Ġgrand": 3774,
      "Ġpatient": 3775,
      "Ġ28": 3776,
      "icing": 3777,
      "Ġthreat": 3778,
      "ĠAss": 3779,
      "ĠBoard": 3780,
      "Ġgreater": 3781,
      "bon": 3782,
      "Ġinstitut": 3783,
      "Ġnumbers": 3784,
      "dule": 3785,
      "Ġtrain": 3786,
      "vis": 3787,
      "que": 3788,
      "Ġjourney": 3789,
      "estern": 3790,
      "Ġmill": 3791,
      "Ġson": 3792,
      "Ġcovered": 3793,
      "atically": 3794,
      "Ġthanks": 3795,
      "Ġteams": 3796,
      "Ġcraft": 3797,
      "ĠFacebook": 3798,
      "iety": 3799,
      "rant": 3800,
      "Ġnation": 3801,
      "Ġclub": 3802,
      "Ġexhib": 3803,
      "undred": 3804,
      "wide": 3805,
      "tee": 3806,
      "ously": 3807,
      "Ġlines": 3808,
      "ĠWal": 3809,
      "Ġmaybe": 3810,
      "Ġprinc": 3811,
      "ĠRet": 3812,
      "Ġmethods": 3813,
      "Ġwine": 3814,
      "Ġfurniture": 3815,
      "ooks": 3816,
      "Ġcoffee": 3817,
      "Ġstraight": 3818,
      "hol": 3819,
      "Ġcho": 3820,
      "rol": 3821,
      "Â®": 3822,
      "ĠâĢ¢": 3823,
      "Ġchem": 3824,
      "tenance": 3825,
      "ĠJe": 3826,
      "ĠRec": 3827,
      "Ġsteps": 3828,
      "Ġlength": 3829,
      "zz": 3830,
      "Ġcru": 3831,
      "atever": 3832,
      "ĠBecause": 3833,
      "ĠAssociation": 3834,
      "ĠMake": 3835,
      "ĠWhite": 3836,
      "Ġfiles": 3837,
      "bert": 3838,
      "Ġlarger": 3839,
      "Ġsort": 3840,
      "atively": 3841,
      "Ġsoci": 3842,
      "force": 3843,
      "ĠCanada": 3844,
      "Ġcold": 3845,
      "Ġmis": 3846,
      "Ġhop": 3847,
      "ĠMac": 3848,
      "Ġwants": 3849,
      "care": 3850,
      "Ġcab": 3851,
      "ĠStreet": 3852,
      "Ġplayer": 3853,
      "Ġestate": 3854,
      "Ġ26": 3855,
      "istics": 3856,
      "Ġdefe": 3857,
      "Ġscience": 3858,
      "Ġmodels": 3859,
      "ĠCheck": 3860,
      "Ġconnection": 3861,
      "Ġstrength": 3862,
      "Ġspread": 3863,
      "Ġpartner": 3864,
      "24": 3865,
      "coming": 3866,
      "99": 3867,
      "des": 3868,
      "ĠMond": 3869,
      "Ġserved": 3870,
      "ugh": 3871,
      "Ġfinally": 3872,
      "Ġturned": 3873,
      "ĠHall": 3874,
      "ĠIT": 3875,
      "Ġbathroom": 3876,
      "Ġliter": 3877,
      "odes": 3878,
      "unt": 3879,
      "Ġremain": 3880,
      "Ġorganizations": 3881,
      "Ġcars": 3882,
      "Ġrelig": 3883,
      "Ġestablished": 3884,
      "usive": 3885,
      "Ġsharing": 3886,
      "olate": 3887,
      "Ġrock": 3888,
      "Ġabsolute": 3889,
      "Ġtemperature": 3890,
      "ĠYes": 3891,
      "ĠDel": 3892,
      "ĠSub": 3893,
      "Ġstudies": 3894,
      "inter": 3895,
      "ĠWashing": 3896,
      "Ġadvantage": 3897,
      "iant": 3898,
      "ĠAnt": 3899,
      "ĠDist": 3900,
      "ĠIsland": 3901,
      "Ġdetermine": 3902,
      "anch": 3903,
      "Ġannounced": 3904,
      "AD": 3905,
      "Ġfear": 3906,
      "Ġpow": 3907,
      "Ġpaint": 3908,
      "Ġwindow": 3909,
      "TM": 3910,
      "ĠPort": 3911,
      "set": 3912,
      "arc": 3913,
      "term": 3914,
      "Ġchallenges": 3915,
      "ĠDuring": 3916,
      "ayer": 3917,
      "Ġalthough": 3918,
      "Ġoccas": 3919,
      "Ġstates": 3920,
      "Ġscient": 3921,
      "Ġexperts": 3922,
      "Ġconven": 3923,
      "unte": 3924,
      "Ġmechan": 3925,
      "Ġcapital": 3926,
      "Ġvill": 3927,
      "ĠAustralia": 3928,
      "ij": 3929,
      "US": 3930,
      "Ġmicro": 3931,
      "sec": 3932,
      "iques": 3933,
      "ĠDevelop": 3934,
      "Ġreports": 3935,
      "23": 3936,
      "Ġthank": 3937,
      "Ġretail": 3938,
      "asc": 3939,
      "ivil": 3940,
      "ipped": 3941,
      "anging": 3942,
      "soft": 3943,
      "Ġincome": 3944,
      "Ġflav": 3945,
      "Ġsaying": 3946,
      "Ġtitle": 3947,
      "Ġtim": 3948,
      "Ġfra": 3949,
      "ĠAv": 3950,
      "ault": 3951,
      "Ġahead": 3952,
      "esome": 3953,
      "ĠUse": 3954,
      "Ġcontinu": 3955,
      "Ġtag": 3956,
      "ĠSupp": 3957,
      "ustr": 3958,
      "Ġfill": 3959,
      "ĠPM": 3960,
      "Ġund": 3961,
      "ĠToday": 3962,
      "ĠSpr": 3963,
      "ĠCouncil": 3964,
      "ĠFind": 3965,
      "Ġtherefore": 3966,
      "icip": 3967,
      "Ġalone": 3968,
      "Ġtips": 3969,
      "Ġonto": 3970,
      "ĠBook": 3971,
      "Ġsty": 3972,
      "agram": 3973,
      "EM": 3974,
      "Ġsand": 3975,
      "ĠOh": 3976,
      "ĠMor": 3977,
      "order": 3978,
      "Ġexpand": 3979,
      "Ġfaith": 3980,
      "Ġfant": 3981,
      "Ġrequires": 3982,
      "encies": 3983,
      "Ġdrop": 3984,
      "ĠSpe": 3985,
      "ĠSocial": 3986,
      "more": 3987,
      "OL": 3988,
      "Ġpieces": 3989,
      "Ġwear": 3990,
      "Ġplus": 3991,
      "Ġvirt": 3992,
      "Ġassign": 3993,
      "ĠOffice": 3994,
      "ION": 3995,
      "Ġopin": 3996,
      "ĠArch": 3997,
      "ded": 3998,
      "iation": 3999,
      "Ġsweet": 4000,
      "ray": 4001,
      "itiz": 4002,
      "Ġblue": 4003,
      "Ġstrategy": 4004,
      "Ġstatement": 4005,
      "ĠGovern": 4006,
      "Ġden": 4007,
      "Ġdied": 4008,
      "ĠSuper": 4009,
      "Ġearlier": 4010,
      "Ġreviews": 4011,
      "iny": 4012,
      "Ġfather": 4013,
      "Ġitem": 4014,
      "Ġacadem": 4015,
      "ĠSch": 4016,
      "Ġbutton": 4017,
      "45": 4018,
      "down": 4019,
      "ĠHot": 4020,
      "Ġserious": 4021,
      "Ġharm": 4022,
      "Ġowner": 4023,
      "Ġmiles": 4024,
      "aughter": 4025,
      "oul": 4026,
      "Ġchann": 4027,
      "Ġdriving": 4028,
      "ounds": 4029,
      "Ġpolice": 4030,
      "Ġbatter": 4031,
      "ĠSk": 4032,
      "Ġhundred": 4033,
      "Ġstar": 4034,
      "Ġsurv": 4035,
      "Ġexperiences": 4036,
      "Ġdoub": 4037,
      "field": 4038,
      "Ġmission": 4039,
      "Ġgain": 4040,
      "ĠOb": 4041,
      "Ġorigin": 4042,
      "ĠAccording": 4043,
      "ĠMal": 4044,
      "ĠGreen": 4045,
      "ĠJack": 4046,
      "Ġgraph": 4047,
      "yn": 4048,
      "itter": 4049,
      "Ġaren": 4050,
      "ĠFrench": 4051,
      "Ġchurch": 4052,
      "Ġstandards": 4053,
      "ĠAnother": 4054,
      "ĠWashington": 4055,
      "Ġtraffic": 4056,
      "Ġpoor": 4057,
      "Ġcritical": 4058,
      "ĠBritish": 4059,
      "ĠTop": 4060,
      "hips": 4061,
      "see": 4062,
      "overed": 4063,
      "Ġupdate": 4064,
      "Ġprofessionals": 4065,
      "ĠDown": 4066,
      "Ġlooked": 4067,
      "aled": 4068,
      "Ġshared": 4069,
      "Ġwoman": 4070,
      "Ġmiddle": 4071,
      "othing": 4072,
      "Ġoperation": 4073,
      "Ġsolid": 4074,
      "As": 4075,
      "Ġmanage": 4076,
      "ribute": 4077,
      "Ġserver": 4078,
      "Ġdemonstr": 4079,
      "ĠMonday": 4080,
      "ĠVis": 4081,
      "Ġfollowed": 4082,
      "ĠResearch": 4083,
      "Ġflex": 4084,
      "Ġmoved": 4085,
      "Ġvot": 4086,
      "Ġprote": 4087,
      "Ġconv": 4088,
      "Ġslight": 4089,
      "action": 4090,
      "Ġstrugg": 4091,
      "mp": 4092,
      "urning": 4093,
      "aker": 4094,
      "Ġadvanced": 4095,
      "Ġdedicated": 4096,
      "ĠDavid": 4097,
      "Ġcry": 4098,
      "iment": 4099,
      "Ġshape": 4100,
      "Ġsports": 4101,
      "Ġdelic": 4102,
      "Ġâ": 4103,
      "Ġplants": 4104,
      "phone": 4105,
      "Ġincred": 4106,
      "rem": 4107,
      "ĠSom": 4108,
      "Ġadop": 4109,
      "Ġprogress": 4110,
      "Ġshopping": 4111,
      "ani": 4112,
      "ĠIns": 4113,
      "Ġfan": 4114,
      "Ġwhose": 4115,
      "ĠHave": 4116,
      "Ġhighlight": 4117,
      "Ġdiscount": 4118,
      "Ġfactors": 4119,
      "itude": 4120,
      "Ġcells": 4121,
      "roid": 4122,
      "Ġroof": 4123,
      "Ġfinding": 4124,
      "ĠClass": 4125,
      "Ġprepared": 4126,
      "Ġwife": 4127,
      "ĠCr": 4128,
      "Ġletter": 4129,
      "ĠiP": 4130,
      "ĠPaul": 4131,
      "Ġexcl": 4132,
      "Ġwinter": 4133,
      "Ġtalking": 4134,
      "Ġteaching": 4135,
      "well": 4136,
      "ĠLove": 4137,
      "Ġremove": 4138,
      "Ġbillion": 4139,
      "Ġhus": 4140,
      "Ġforce": 4141,
      "Ġhandle": 4142,
      "Ch": 4143,
      "Ġtrou": 4144,
      "Ġlands": 4145,
      "ĠPC": 4146,
      "Ġsurg": 4147,
      "Ġcommunities": 4148,
      "Ġactual": 4149,
      "Ġcapacity": 4150,
      "35": 4151,
      "Ġwild": 4152,
      "âĢĿ,": 4153,
      "bum": 4154,
      "ĠCur": 4155,
      "Ġparties": 4156,
      "Ġcontains": 4157,
      "Ġiniti": 4158,
      "ĠSa": 4159,
      "Ġarchitect": 4160,
      "ĠFound": 4161,
      "IP": 4162,
      "ios": 4163,
      "tra": 4164,
      "Ġfish": 4165,
      "Ġmaster": 4166,
      "icking": 4167,
      "lying": 4168,
      "Ġefforts": 4169,
      "Ġdirector": 4170,
      "Ġhimself": 4171,
      "Ġgenerally": 4172,
      "Ġstream": 4173,
      "pective": 4174,
      "Ġlisted": 4175,
      "âĢ²": 4176,
      "unk": 4177,
      "Ġprimary": 4178,
      "ixt": 4179,
      "Ġschedule": 4180,
      "rote": 4181,
      "ĠAC": 4182,
      "ĠMicro": 4183,
      "iency": 4184,
      "Ġdiet": 4185,
      "fast": 4186,
      "Ġbedroom": 4187,
      "Ġincor": 4188,
      "Ġlimit": 4189,
      "rep": 4190,
      "estival": 4191,
      "Ġvalues": 4192,
      "Ġelements": 4193,
      "sey": 4194,
      "osure": 4195,
      "cape": 4196,
      "Ġresist": 4197,
      "Ġshoot": 4198,
      "Ġproperties": 4199,
      "ero": 4200,
      "ady": 4201,
      "Ġfashion": 4202,
      "ĠClub": 4203,
      "Ġfriendly": 4204,
      "Ġpassion": 4205,
      "Ġmanufacturer": 4206,
      "amin": 4207,
      "Ġcompetition": 4208,
      "Ġcolors": 4209,
      "eria": 4210,
      "rehens": 4211,
      "oos": 4212,
      "osing": 4213,
      "Ġcamera": 4214,
      "hop": 4215,
      "Ġopening": 4216,
      "Ġsources": 4217,
      "Ġplaced": 4218,
      "Ġperhaps": 4219,
      "apter": 4220,
      "Ġcleaning": 4221,
      "MS": 4222,
      "rig": 4223,
      "Ġban": 4224,
      "roud": 4225,
      "standing": 4226,
      "ado": 4227,
      "Ġfees": 4228,
      "Ġhaven": 4229,
      "Ġrich": 4230,
      "70": 4231,
      "Ġmaintenance": 4232,
      "Ġtend": 4233,
      "ĠThurs": 4234,
      "Ġfigure": 4235,
      "100": 4236,
      "dy": 4237,
      "icies": 4238,
      "Ġadding": 4239,
      "ĠAnn": 4240,
      "Ġpractices": 4241,
      "Ġjobs": 4242,
      "Ġbalance": 4243,
      "ĠLear": 4244,
      "ĠCourt": 4245,
      "Ġ|": 4246,
      "orrow": 4247,
      "ĠII": 4248,
      "Ġpresented": 4249,
      "ught": 4250,
      "Ġpros": 4251,
      "inese": 4252,
      "Ġtesting": 4253,
      "Ġpopulation": 4254,
      "Ġwelcome": 4255,
      "ĠLoc": 4256,
      "Ġfinished": 4257,
      "itors": 4258,
      "ĠMa": 4259,
      "ĠAnge": 4260,
      "Ġsteel": 4261,
      "Ġingred": 4262,
      "Ġbow": 4263,
      "Ġgarden": 4264,
      "Ġclasses": 4265,
      "Ġmer": 4266,
      "Ġcourses": 4267,
      "Ġbuying": 4268,
      "ĠChurch": 4269,
      "ĠFlor": 4270,
      "ico": 4271,
      "enture": 4272,
      "ĠWeb": 4273,
      "Ġmotor": 4274,
      "pm": 4275,
      "Ġbreat": 4276,
      "Ġwaste": 4277,
      "Ġestablish": 4278,
      "Ġrefer": 4279,
      "ĠPeople": 4280,
      "gen": 4281,
      "ÂŃ": 4282,
      "ĠMaster": 4283,
      "ocolate": 4284,
      "Ġdiscover": 4285,
      "ament": 4286,
      "ying": 4287,
      "text": 4288,
      "Ġdeveloping": 4289,
      "Ġclaims": 4290,
      "mark": 4291,
      "Ġkept": 4292,
      "Ġcentury": 4293,
      "rees": 4294,
      "ĠCare": 4295,
      "enses": 4296,
      "ĠTex": 4297,
      "za": 4298,
      "Ġwire": 4299,
      "Ġkeeping": 4300,
      "Ġbeauty": 4301,
      "Ġpush": 4302,
      "ĠWord": 4303,
      "ael": 4304,
      "Ġheavy": 4305,
      "ooper": 4306,
      "Ġsmooth": 4307,
      "Ġvision": 4308,
      "Ġcup": 4309,
      "Ġeight": 4310,
      "Ġsession": 4311,
      "Ġcoverage": 4312,
      "):": 4313,
      "hem": 4314,
      "Ġproduced": 4315,
      "Ġcast": 4316,
      "Ġcheap": 4317,
      "Ġhelpful": 4318,
      "Ġissued": 4319,
      "ĠManagement": 4320,
      "Ġlearned": 4321,
      "Ġice": 4322,
      "Ġnames": 4323,
      "cel": 4324,
      "ĠDem": 4325,
      "Ġviews": 4326,
      "inger": 4327,
      "Ġspring": 4328,
      "Ġ2009": 4329,
      "!!!": 4330,
      "mar": 4331,
      "Ġfol": 4332,
      "arge": 4333,
      "ĠMet": 4334,
      "Ġfacilities": 4335,
      "ĠInstitute": 4336,
      "Ġessay": 4337,
      "bed": 4338,
      "Ġbeg": 4339,
      "65": 4340,
      "Ġdang": 4341,
      "Ġrelevant": 4342,
      "ald": 4343,
      "Ġcomments": 4344,
      "ĠRock": 4345,
      "Ġquarter": 4346,
      "ĠTues": 4347,
      "Ġremind": 4348,
      "ortunately": 4349,
      "Ġexplore": 4350,
      "bu": 4351,
      "Ġrepe": 4352,
      "ĠCall": 4353,
      "Ġnamed": 4354,
      "ĠUnder": 4355,
      "ĠYear": 4356,
      "Ġloan": 4357,
      "Ġflu": 4358,
      "rief": 4359,
      "ĠMart": 4360,
      "Ġvoice": 4361,
      "Ġpeace": 4362,
      "Ġbiggest": 4363,
      "Ġcloud": 4364,
      "ĠMount": 4365,
      "Ġvisual": 4366,
      "ĠSecurity": 4367,
      "Ġpark": 4368,
      "ĠAP": 4369,
      "ĠChristian": 4370,
      "ĠWhether": 4371,
      "Ġ80": 4372,
      "Ġdrug": 4373,
      "Ġseeing": 4374,
      "Ġrooms": 4375,
      "ĠGeneral": 4376,
      "ss": 4377,
      "semb": 4378,
      "ĠThursday": 4379,
      "Ġlinks": 4380,
      "ĠPR": 4381,
      "500": 4382,
      "ĠCustom": 4383,
      "ellow": 4384,
      "Ġholiday": 4385,
      "Ġguests": 4386,
      "ĠWindows": 4387,
      "Ġsustain": 4388,
      "ĠTake": 4389,
      "Ġprovider": 4390,
      "ĠEducation": 4391,
      "Ġsmaller": 4392,
      "Ġcentral": 4393,
      "Ġcore": 4394,
      "acing": 4395,
      "Ġadvance": 4396,
      "fit": 4397,
      "Ġforms": 4398,
      "Ġhusband": 4399,
      "Ġnumerous": 4400,
      "Ġchanging": 4401,
      "ĠPower": 4402,
      "Ġstation": 4403,
      "ĠLife": 4404,
      "Ġevening": 4405,
      "88": 4406,
      "isation": 4407,
      "Ġforget": 4408,
      "Ġfee": 4409,
      "Ġotherwise": 4410,
      "Ġexpensive": 4411,
      "Ġinvestig": 4412,
      "Ġir": 4413,
      "using": 4414,
      "irection": 4415,
      "ommod": 4416,
      "Ġaudience": 4417,
      "Ġseparate": 4418,
      "Ġmo": 4419,
      "Ġtree": 4420,
      "Ġsnow": 4421,
      "Ġpassed": 4422,
      "ĠCommission": 4423,
      "Ġwat": 4424,
      "Ġgone": 4425,
      "ĠWater": 4426,
      "Ġcouldn": 4427,
      "Ġpolicies": 4428,
      "leg": 4429,
      "Ġcancer": 4430,
      "Ġrecords": 4431,
      "Ġcharacters": 4432,
      "Ġexercise": 4433,
      "Ġdecisions": 4434,
      "ĠSur": 4435,
      "lines": 4436,
      "ĠLast": 4437,
      "Ġselected": 4438,
      "Ġfans": 4439,
      "Ġmist": 4440,
      "Ġclimate": 4441,
      "Ġscen": 4442,
      "Ġtruth": 4443,
      "Ġconcent": 4444,
      "Ġfunds": 4445,
      "Ġ29": 4446,
      "Ġplenty": 4447,
      "Ġtransl": 4448,
      "ka": 4449,
      "iber": 4450,
      "Ġdesigns": 4451,
      "¿½": 4452,
      "ï¿½": 4453,
      "Ġmemory": 4454,
      "Ġoperations": 4455,
      "Ġolder": 4456,
      "ĠChinese": 4457,
      "Ġdump": 4458,
      "Ġreality": 4459,
      "ĠElect": 4460,
      "Ġcream": 4461,
      "ĠPlan": 4462,
      "free": 4463,
      "ĠSil": 4464,
      "Ġswitch": 4465,
      "Ġrestrict": 4466,
      "works": 4467,
      ".)": 4468,
      "vision": 4469,
      "Ġsea": 4470,
      "Ġshot": 4471,
      "Ġleader": 4472,
      "Ġarrange": 4473,
      "Ġdinner": 4474,
      "box": 4475,
      "rical": 4476,
      "icine": 4477,
      "omet": 4478,
      "Ġvalid": 4479,
      "You": 4480,
      "ĠHy": 4481,
      "Ġrob": 4482,
      "Ġvolunte": 4483,
      "Ġconference": 4484,
      "ĠRel": 4485,
      "Ġdoctor": 4486,
      "ĠPhot": 4487,
      "Ġwaiting": 4488,
      "Ġstatus": 4489,
      "itar": 4490,
      "Ġluck": 4491,
      "ĠEv": 4492,
      "ĠJames": 4493,
      "Ġ90": 4494,
      "Ġ2008": 4495,
      "ishes": 4496,
      "ĠWed": 4497,
      "Ġalbum": 4498,
      "azon": 4499,
      "amm": 4500,
      "Ġlose": 4501,
      "Ġcontinued": 4502,
      "ona": 4503,
      "Ġresidents": 4504,
      "Ġdecide": 4505,
      "Ġtaste": 4506,
      "top": 4507,
      "Ġwrote": 4508,
      "Ġfamous": 4509,
      "Ġdriver": 4510,
      "Ġbrain": 4511,
      "Ġ?": 4512,
      "ĠST": 4513,
      "ĠBuild": 4514,
      "Ġproud": 4515,
      "eds": 4516,
      "Ġanti": 4517,
      "\",": 4518,
      "Ġbill": 4519,
      "Ġcaused": 4520,
      "ĠSl": 4521,
      "ula": 4522,
      "ĠLike": 4523,
      "Ġunf": 4524,
      "Ġveget": 4525,
      "Ġexcited": 4526,
      "Ġdocuments": 4527,
      "Ġindependent": 4528,
      "ĠTuesday": 4529,
      "Ġtoward": 4530,
      "ĠMag": 4531,
      "Ġbright": 4532,
      "Ġconnected": 4533,
      "Ġforeign": 4534,
      "Ġpackage": 4535,
      "Ġanimals": 4536,
      "Ġmaximum": 4537,
      "Ġeating": 4538,
      "raw": 4539,
      "Ġcombination": 4540,
      "Ġobv": 4541,
      "Ġagreement": 4542,
      "LE": 4543,
      "ternal": 4544,
      "ĠOF": 4545,
      "Ġmedium": 4546,
      "ĠBank": 4547,
      "ĠJer": 4548,
      "umin": 4549,
      "Ġclassic": 4550,
      "ĠCong": 4551,
      "ads": 4552,
      "isl": 4553,
      "Ġgall": 4554,
      "rael": 4555,
      "abase": 4556,
      "ĠTrump": 4557,
      "ech": 4558,
      "Ġdisapp": 4559,
      "overy": 4560,
      "olic": 4561,
      "Ġmulti": 4562,
      "ym": 4563,
      "ented": 4564,
      "ĠNews": 4565,
      "à¤": 4566,
      "Ġseven": 4567,
      "Ġoperating": 4568,
      "Ġ@": 4569,
      "Ġsto": 4570,
      "Ġmap": 4571,
      "Ġcounter": 4572,
      "ĠBre": 4573,
      "cket": 4574,
      "ĠWho": 4575,
      "Ġapplied": 4576,
      "Ġmovement": 4577,
      "aven": 4578,
      "la": 4579,
      "ĠFore": 4580,
      "Ġrare": 4581,
      "Ġlaunch": 4582,
      "ĠSing": 4583,
      "ĠUSA": 4584,
      "Ġbought": 4585,
      "Ġbecoming": 4586,
      "28": 4587,
      "75": 4588,
      "Ġrecipe": 4589,
      "Ġworkers": 4590,
      "Ġbecomes": 4591,
      "Ġflat": 4592,
      "Ġartist": 4593,
      "Ġgeneration": 4594,
      "tion": 4595,
      "Ġreference": 4596,
      "ĠSum": 4597,
      "ĠForm": 4598,
      "UR": 4599,
      "Ġvan": 4600,
      "ĠJew": 4601,
      "ota": 4602,
      "Ġtechniques": 4603,
      "Ġeth": 4604,
      "IV": 4605,
      "Ġupgra": 4606,
      "Ġdiagn": 4607,
      "Ġmentioned": 4608,
      "asy": 4609,
      "Ġmetal": 4610,
      "Ġfocused": 4611,
      "ĠEngine": 4612,
      "Ġsch": 4613,
      "Ġrecip": 4614,
      "BC": 4615,
      "Ġpsych": 4616,
      "Ġlux": 4617,
      "Ġworry": 4618,
      "Ġinstallation": 4619,
      "ĠTexas": 4620,
      "Ġhappens": 4621,
      "Ġeconomy": 4622,
      "ĠCam": 4623,
      "nding": 4624,
      "Ġstick": 4625,
      "ĠMem": 4626,
      "rupt": 4627,
      "ĠSun": 4628,
      "Ġoutdoor": 4629,
      "Ġcolour": 4630,
      "Ġrestaurant": 4631,
      "Ġaccommod": 4632,
      "Ġencourage": 4633,
      "ĠDirector": 4634,
      "Ġtom": 4635,
      "ĠWhere": 4636,
      "Ġmilitary": 4637,
      "OW": 4638,
      "craft": 4639,
      "Ġrain": 4640,
      "Ġsector": 4641,
      "ĠLight": 4642,
      "ervation": 4643,
      "Ġspect": 4644,
      "Ġbrows": 4645,
      "Ġsched": 4646,
      "ocr": 4647,
      "Ġexciting": 4648,
      "Ġstreet": 4649,
      "Ġsociety": 4650,
      "bl": 4651,
      "rey": 4652,
      "ferences": 4653,
      "Ġformat": 4654,
      "Ġenvironmental": 4655,
      "unning": 4656,
      "abilities": 4657,
      "Ġrat": 4658,
      "Ġtheme": 4659,
      "Ġestim": 4660,
      "IM": 4661,
      "inct": 4662,
      "cean": 4663,
      "Ġcompar": 4664,
      "arr": 4665,
      "ston": 4666,
      "ordin": 4667,
      "ctors": 4668,
      "Ġran": 4669,
      "ĠLake": 4670,
      "Ġdisp": 4671,
      "ga": 4672,
      "Ġdur": 4673,
      "ĠChild": 4674,
      "Ġargu": 4675,
      "Ġsets": 4676,
      "Ġspecies": 4677,
      "Ġmajority": 4678,
      "IG": 4679,
      "orial": 4680,
      "Ġvisitors": 4681,
      "ĠÑ": 4682,
      "ifts": 4683,
      "vere": 4684,
      "Ġwhatever": 4685,
      "pet": 4686,
      "Ġsitu": 4687,
      "Ġprocesses": 4688,
      "Ġfold": 4689,
      "icken": 4690,
      "Ġsounds": 4691,
      "Ġthousands": 4692,
      "iled": 4693,
      "icate": 4694,
      "Ġteachers": 4695,
      "Ġ31": 4696,
      "Ġdistance": 4697,
      "ĠMo": 4698,
      "Ġcomprehens": 4699,
      "ĠPlay": 4700,
      "Ġalternative": 4701,
      "Ġcalls": 4702,
      "Ġassistance": 4703,
      "Ġrelationships": 4704,
      "ximately": 4705,
      "know": 4706,
      "Ġwww": 4707,
      "ĠBoth": 4708,
      "Ġextensive": 4709,
      "Ġopened": 4710,
      "Ġachie": 4711,
      "Ġminimum": 4712,
      "Ġhttp": 4713,
      "Ġcitiz": 4714,
      "ĠPublic": 4715,
      "Ġtypically": 4716,
      "90": 4717,
      "Ġsenior": 4718,
      "Ġimpl": 4719,
      "Ġscore": 4720,
      "Ġremains": 4721,
      "Ġshowing": 4722,
      "ĠRoad": 4723,
      "Ġshipping": 4724,
      "iliar": 4725,
      "ĠTwo": 4726,
      "emporary": 4727,
      "osition": 4728,
      "Ġclosed": 4729,
      "Ġperformed": 4730,
      "Ġdescribed": 4731,
      "ĠKeep": 4732,
      "ails": 4733,
      "apers": 4734,
      "Ġmeant": 4735,
      "Ġpair": 4736,
      "Ġdirection": 4737,
      "osis": 4738,
      "Ġunits": 4739,
      "Ġconfig": 4740,
      "night": 4741,
      "Ġfabric": 4742,
      "ĠProfess": 4743,
      "anta": 4744,
      "ĠBay": 4745,
      "ĠProject": 4746,
      "omin": 4747,
      "ĠFam": 4748,
      "Ġmanager": 4749,
      "gn": 4750,
      "ĠRich": 4751,
      "lands": 4752,
      "ago": 4753,
      "ception": 4754,
      "Ġprincip": 4755,
      "Ġprocessing": 4756,
      "Ġcorporate": 4757,
      "Ġthus": 4758,
      "aming": 4759,
      "Ġgrant": 4760,
      "Ġpanel": 4761,
      "Ġteacher": 4762,
      "ĠSoc": 4763,
      "Ġanc": 4764,
      "Ġhappened": 4765,
      "ĠPhil": 4766,
      "ĠFlorida": 4767,
      "CA": 4768,
      "miss": 4769,
      "iration": 4770,
      "Ġleaving": 4771,
      "iers": 4772,
      "Ġapart": 4773,
      "ĠSam": 4774,
      "Ġawesome": 4775,
      "icon": 4776,
      "ĠLord": 4777,
      "Ġcategory": 4778,
      "26": 4779,
      "Ġdepartment": 4780,
      "Ġrub": 4781,
      "Ġearth": 4782,
      "ĠMiss": 4783,
      "ĠHel": 4784,
      "www": 4785,
      "Ġfem": 4786,
      "ĠIsrael": 4787,
      "ructure": 4788,
      "Ġminute": 4789,
      "Ġbrings": 4790,
      "ĠOpen": 4791,
      "ĠRiver": 4792,
      "Ġshower": 4793,
      "Ġstarts": 4794,
      "Ġdram": 4795,
      "Ġquant": 4796,
      "Ġspending": 4797,
      "ENT": 4798,
      "uable": 4799,
      "Ġ=": 4800,
      "rab": 4801,
      "ĠBal": 4802,
      "ĠVol": 4803,
      "ifying": 4804,
      "ĠWednes": 4805,
      "ĠIts": 4806,
      "Ġexpress": 4807,
      "Ġcontroll": 4808,
      "ĠScience": 4809,
      "ĠBefore": 4810,
      "Ġpreviously": 4811,
      "95": 4812,
      "NA": 4813,
      "ĠWall": 4814,
      "uled": 4815,
      "ĠGlo": 4816,
      "Ġadapt": 4817,
      "Ġcontinues": 4818,
      "Ġmanaged": 4819,
      "ette": 4820,
      "Ġjoint": 4821,
      "ĠAfrica": 4822,
      "gment": 4823,
      "ĠAS": 4824,
      "ĠTheir": 4825,
      "Ġcompl": 4826,
      "ĠStar": 4827,
      "Ġaffordable": 4828,
      "Ġbon": 4829,
      "Ġartists": 4830,
      "Ġvideos": 4831,
      "imb": 4832,
      "ĠHist": 4833,
      "ĠStr": 4834,
      "Ġ70": 4835,
      "Ġmenu": 4836,
      "Ġbul": 4837,
      "Ġpractical": 4838,
      "If": 4839,
      "ship": 4840,
      "estic": 4841,
      "Ġdecl": 4842,
      "Ġmarkets": 4843,
      "Ġmagn": 4844,
      "hi": 4845,
      "Ġselling": 4846,
      "Ġwebsites": 4847,
      "Ġconstruct": 4848,
      "Ġinstalled": 4849,
      "Ġsurgery": 4850,
      "Ġagency": 4851,
      "IR": 4852,
      "Ġ2007": 4853,
      "Ġlisten": 4854,
      "Ġfootball": 4855,
      "Ġinstru": 4856,
      "Ġsecret": 4857,
      "asure": 4858,
      "ĠPet": 4859,
      "ĠExp": 4860,
      "ĠTO": 4861,
      "Ġinternal": 4862,
      "Ġenjoyed": 4863,
      "iders": 4864,
      "Ġserving": 4865,
      "bour": 4866,
      "Ġsav": 4867,
      "Ġleadership": 4868,
      "Ġacademic": 4869,
      "ĠOnline": 4870,
      "33": 4871,
      "Ġbeach": 4872,
      "add": 4873,
      "Ġposts": 4874,
      "Ġdaughter": 4875,
      "Ġunless": 4876,
      "DA": 4877,
      "Ġproperly": 4878,
      "Ġcatch": 4879,
      "Ġmort": 4880,
      "ĠMary": 4881,
      "Ġwindows": 4882,
      "Ġrecommended": 4883,
      "Ġingredients": 4884,
      "Ġreached": 4885,
      "ĠEngland": 4886,
      "Ġegg": 4887,
      "log": 4888,
      "Ġruns": 4889,
      "asks": 4890,
      "ĠJour": 4891,
      "ampions": 4892,
      "Ġvolume": 4893,
      "Ġupdated": 4894,
      "ĠDevelopment": 4895,
      "ĠDri": 4896,
      "Ġstrategies": 4897,
      "Ġevalu": 4898,
      "ander": 4899,
      "Ġclearly": 4900,
      "Ġfilled": 4901,
      "Ġacid": 4902,
      "Ġfacility": 4903,
      "Ġlaun": 4904,
      "Ġtickets": 4905,
      "Ġchoices": 4906,
      "ĠMill": 4907,
      "Ġchocolate": 4908,
      "21": 4909,
      "Ġdistrict": 4910,
      "Ġmanner": 4911,
      "rene": 4912,
      "Ġpresence": 4913,
      "Ġspecifically": 4914,
      "ano": 4915,
      "Ġhospital": 4916,
      "Ġbusy": 4917,
      "Ġguess": 4918,
      "PA": 4919,
      "Ġfuel": 4920,
      "Ġleaves": 4921,
      "Ġsym": 4922,
      "ror": 4923,
      "Ġspl": 4924,
      "Ġnovel": 4925,
      "Ġlaws": 4926,
      "pid": 4927,
      "ĠBet": 4928,
      "outhern": 4929,
      "Ġdining": 4930,
      "ĠWood": 4931,
      "Ġaudio": 4932,
      "ĠInformation": 4933,
      "Ġwouldn": 4934,
      "Ġmostly": 4935,
      "Ġthoughts": 4936,
      "Ġresponsibility": 4937,
      "Ġpal": 4938,
      "Ġphotograph": 4939,
      "Ġhonest": 4940,
      "ĠGermany": 4941,
      "Ġlighting": 4942,
      "Ġexpertise": 4943,
      "ĠMichael": 4944,
      "pond": 4945,
      "Ġconcerns": 4946,
      "ĠBill": 4947,
      "Ġknows": 4948,
      "Ġinjury": 4949,
      "gal": 4950,
      "ĠBack": 4951,
      "Ġarticles": 4952,
      "Ġtow": 4953,
      "Ġment": 4954,
      "Ġder": 4955,
      "ĠTor": 4956,
      "ĠOR": 4957,
      "Ġpredict": 4958,
      "ĠMark": 4959,
      "Ġdynam": 4960,
      "IA": 4961,
      "Ġ>": 4962,
      "ĠMain": 4963,
      "Ġpoll": 4964,
      "going": 4965,
      "Ð¸": 4966,
      "Ġlabor": 4967,
      "inding": 4968,
      "Ġabsolutely": 4969,
      "Ġsouth": 4970,
      "Ġdiscussion": 4971,
      "Ġautomatically": 4972,
      "oe": 4973,
      "ĠFire": 4974,
      "orthern": 4975,
      "Ġindustrial": 4976,
      "ĠGerman": 4977,
      "ĠWednesday": 4978,
      "Ġtechnologies": 4979,
      "cles": 4980,
      "rian": 4981,
      "Ġimportance": 4982,
      "ĠNext": 4983,
      "eed": 4984,
      "Ġdut": 4985,
      "Ġcorner": 4986,
      "ĠSpecial": 4987,
      "unction": 4988,
      "Ġactions": 4989,
      "Ġpromote": 4990,
      "ĠBlue": 4991,
      "ipp": 4992,
      "oma": 4993,
      "ĠBen": 4994,
      "Ġinstance": 4995,
      "Ġpresident": 4996,
      "ĠRepublic": 4997,
      "Ġsquare": 4998,
      "aser": 4999,
      "uries": 5000,
      "Ġshowed": 5001,
      "uce": 5002,
      "Ġflowers": 5003,
      "Ġfantastic": 5004,
      "He": 5005,
      "LC": 5006,
      "ĠCamp": 5007,
      "Ġscale": 5008,
      "Ġinterior": 5009,
      "prise": 5010,
      "Ġspons": 5011,
      "Ġallowing": 5012,
      "rd": 5013,
      "ugg": 5014,
      "ya": 5015,
      "poses": 5016,
      "Ġstores": 5017,
      "Ġprepare": 5018,
      "point": 5019,
      "illa": 5020,
      "ulate": 5021,
      "Ġdish": 5022,
      "mosp": 5023,
      "nel": 5024,
      "Ġseek": 5025,
      "Ġtopic": 5026,
      "Ġsuitable": 5027,
      "Ġcabin": 5028,
      "Ġ500": 5029,
      "Ġleads": 5030,
      "Ġbrother": 5031,
      "Ġvehicles": 5032,
      "ulations": 5033,
      "ulty": 5034,
      "fficient": 5035,
      "Ġsatisf": 5036,
      "Ġcombined": 5037,
      "Ġaccident": 5038,
      "Ġfederal": 5039,
      "Ġhom": 5040,
      "no": 5041,
      "Ġdetailed": 5042,
      "Ġhyd": 5043,
      "yer": 5044,
      "Ġboy": 5045,
      "ĠData": 5046,
      "Ġship": 5047,
      "Ġlock": 5048,
      "Ġdetect": 5049,
      "Ġmotiv": 5050,
      "Ġregistered": 5051,
      "Ġexchange": 5052,
      "Ġanywhere": 5053,
      "Ġwalking": 5054,
      "Ġchemical": 5055,
      "Ġslightly": 5056,
      "essions": 5057,
      "Ġvote": 5058,
      "Ġ35": 5059,
      "noon": 5060,
      "Ġride": 5061,
      "outs": 5062,
      "ĠUN": 5063,
      "Ġattor": 5064,
      "ĠFrance": 5065,
      "Ġenhance": 5066,
      "BS": 5067,
      "Ġappeal": 5068,
      "gl": 5069,
      "Ġerror": 5070,
      "mail": 5071,
      "hent": 5072,
      "itness": 5073,
      "ĠBig": 5074,
      "Ġplastic": 5075,
      "ĠProduct": 5076,
      "known": 5077,
      "ĠWork": 5078,
      "Ġsymb": 5079,
      "zen": 5080,
      "ĠRoy": 5081,
      "Ġuniversity": 5082,
      "Ġdebt": 5083,
      "Ġneighbor": 5084,
      "ĠMot": 5085,
      "Ġframe": 5086,
      "Ġcivil": 5087,
      "Ġlocations": 5088,
      "ĠApple": 5089,
      "Ġwilling": 5090,
      "Ġtransform": 5091,
      "ĠGovernment": 5092,
      "ĠPay": 5093,
      "ivered": 5094,
      "osen": 5095,
      "Ġsurvey": 5096,
      "Ġgirl": 5097,
      "Ġemergency": 5098,
      "Ġinnovative": 5099,
      "Ġton": 5100,
      "Ġapproximately": 5101,
      "Ġaccompl": 5102,
      "mal": 5103,
      "ĠMach": 5104,
      "ĠBer": 5105,
      "ĠColor": 5106,
      "ĠEnter": 5107,
      "27": 5108,
      "td": 5109,
      "antic": 5110,
      "Ġfeedback": 5111,
      "state": 5112,
      "Ġputting": 5113,
      "ĠAmazon": 5114,
      "ĠDet": 5115,
      "Ġwatching": 5116,
      "Ġreliable": 5117,
      "omb": 5118,
      "Ġjump": 5119,
      "Ġauto": 5120,
      "DF": 5121,
      "den": 5122,
      "Ã¡": 5123,
      "Ġign": 5124,
      "Ġdie": 5125,
      "Ġpurposes": 5126,
      "BA": 5127,
      "Ġnegative": 5128,
      "ĠMex": 5129,
      "ulated": 5130,
      "Ġinterp": 5131,
      "Ġadvertising": 5132,
      "Ġcomponents": 5133,
      "ĠLat": 5134,
      "Ġdelicious": 5135,
      "Ġcomprehensive": 5136,
      "ilit": 5137,
      "Ġedge": 5138,
      "Ġap": 5139,
      "oles": 5140,
      "Ġteach": 5141,
      "Ġgoods": 5142,
      "Ġlovely": 5143,
      "Ġcities": 5144,
      "Ġjournal": 5145,
      "aj": 5146,
      "ĠHum": 5147,
      "Ġcasino": 5148,
      "44": 5149,
      "paper": 5150,
      "ĠAM": 5151,
      "Ġregister": 5152,
      "Ġprotein": 5153,
      "ĠSol": 5154,
      "Ġapproved": 5155,
      "Ġjoined": 5156,
      "Ġconfirm": 5157,
      "Ġaspects": 5158,
      "oor": 5159,
      "ĠThom": 5160,
      "ĠConst": 5161,
      "Ġsolar": 5162,
      "icians": 5163,
      "ĠMuseum": 5164,
      "Ġcris": 5165,
      "ĠDistrict": 5166,
      "cont": 5167,
      "ales": 5168,
      "ipl": 5169,
      "ĠFoundation": 5170,
      "ae": 5171,
      "Ġdial": 5172,
      "ĠID": 5173,
      "igence": 5174,
      "ucle": 5175,
      "Ġproceed": 5176,
      "Ġcontext": 5177,
      "rier": 5178,
      "ĠThrough": 5179,
      "ĠStart": 5180,
      "ste": 5181,
      "reek": 5182,
      "Ġdecre": 5183,
      "ĠBeach": 5184,
      "Ġtempl": 5185,
      "Ġdatabase": 5186,
      "ĠTime": 5187,
      "ĠCap": 5188,
      "ĠMel": 5189,
      "ĠRob": 5190,
      "ĠOnly": 5191,
      "Ġcultural": 5192,
      "Ġthick": 5193,
      "Ġnorth": 5194,
      "alls": 5195,
      "ĠContact": 5196,
      "Ġelement": 5197,
      "Ġcentre": 5198,
      "Ġappears": 5199,
      "ĠValley": 5200,
      "Ġbehavior": 5201,
      "Ġopinion": 5202,
      "Ġthread": 5203,
      "Ġlunch": 5204,
      "Ġoutput": 5205,
      "Ġourselves": 5206,
      "ĠQue": 5207,
      "ĠCentral": 5208,
      "ĠTy": 5209,
      "Ġdesk": 5210,
      "Ġsem": 5211,
      "Ġsport": 5212,
      "Ġbrands": 5213,
      "Ġdrink": 5214,
      "CC": 5215,
      "Ġterr": 5216,
      "ĠVe": 5217,
      "Ġlicens": 5218,
      "water": 5219,
      "ria": 5220,
      "ĠAcadem": 5221,
      "Ġtherapy": 5222,
      "Ġbike": 5223,
      "ĠThose": 5224,
      "Ġarm": 5225,
      "ĠDiv": 5226,
      "Ġprofit": 5227,
      "Ġfavour": 5228,
      "Ġprocedure": 5229,
      "fin": 5230,
      "Ġdu": 5231,
      "Ġfunctions": 5232,
      "Ġemployee": 5233,
      "iance": 5234,
      "hetic": 5235,
      "Ġring": 5236,
      "Ġreput": 5237,
      "list": 5238,
      "ĠLou": 5239,
      "Ġradio": 5240,
      "ĠCommunity": 5241,
      "rs": 5242,
      "ĠTur": 5243,
      "othes": 5244,
      "Ġbuildings": 5245,
      "Ġexplain": 5246,
      "32": 5247,
      "men": 5248,
      "Ġer": 5249,
      "Ġfle": 5250,
      "Ġinfo": 5251,
      "friend": 5252,
      "ĠCert": 5253,
      "ĠExper": 5254,
      "Ġsalt": 5255,
      "Ġpremium": 5256,
      "ĠCard": 5257,
      "Ġstone": 5258,
      "Ġcommitted": 5259,
      "Ġwarrant": 5260,
      "ĠJapanese": 5261,
      "ĠDownload": 5262,
      "Ġraised": 5263,
      "Ġtrees": 5264,
      "ĠAND": 5265,
      "ĠTable": 5266,
      "ĠNote": 5267,
      "Ġquot": 5268,
      "ĠReal": 5269,
      "ums": 5270,
      "Ġfamiliar": 5271,
      "RA": 5272,
      "Ġended": 5273,
      "Ġboat": 5274,
      "Ġburn": 5275,
      "ĠIde": 5276,
      "Ġatmosp": 5277,
      "ĠCP": 5278,
      "Ġresource": 5279,
      "Ġdelivered": 5280,
      "Ġdepos": 5281,
      "Ġafternoon": 5282,
      "fol": 5283,
      "Ġagent": 5284,
      "Ġdepending": 5285,
      "ĠSet": 5286,
      "ĠAlex": 5287,
      "Ġenable": 5288,
      "cohol": 5289,
      "hab": 5290,
      "Ġë": 5291,
      "Ġhun": 5292,
      "Ġrule": 5293,
      "Ġfunding": 5294,
      "ĠMil": 5295,
      "Ġcoast": 5296,
      "Ġeducational": 5297,
      "ront": 5298,
      "Ġtun": 5299,
      "arp": 5300,
      "Ġsongs": 5301,
      "Ġelimin": 5302,
      "lam": 5303,
      "Ġcart": 5304,
      "What": 5305,
      "lor": 5306,
      "ĠAddition": 5307,
      "Ġpossibly": 5308,
      "Ġcalcul": 5309,
      "how": 5310,
      "Ġthrow": 5311,
      "liance": 5312,
      "pan": 5313,
      "Ġaid": 5314,
      "Ġbird": 5315,
      "Ġdeals": 5316,
      "Ġsugar": 5317,
      "TS": 5318,
      "Ġlived": 5319,
      "vin": 5320,
      "Ġteeth": 5321,
      "Ġdespite": 5322,
      "Ġchair": 5323,
      "Ġ196": 5324,
      "Ġtotally": 5325,
      "ĠMedical": 5326,
      "Ġconsumers": 5327,
      "dem": 5328,
      "Ġdoors": 5329,
      "Ġadults": 5330,
      "Ġfruit": 5331,
      "Ġkid": 5332,
      "Ġinspired": 5333,
      "Ġremoved": 5334,
      "Ġsympt": 5335,
      "Ġsample": 5336,
      "ĠMad": 5337,
      "Ġbrief": 5338,
      "ĠSearch": 5339,
      "Ġshut": 5340,
      "ulture": 5341,
      "Ġconfidence": 5342,
      "Ġvisiting": 5343,
      "rim": 5344,
      "ĠPress": 5345,
      "Ġreturned": 5346,
      "rate": 5347,
      "Ġcrow": 5348,
      "ĠMatt": 5349,
      "Ġweak": 5350,
      "ĠCommit": 5351,
      "Ġbeat": 5352,
      "Ġscene": 5353,
      "ĠAtt": 5354,
      "ĠGrand": 5355,
      "Ġrapid": 5356,
      "Ġfields": 5357,
      "life": 5358,
      "ĠNOT": 5359,
      "ifications": 5360,
      "SS": 5361,
      "ki": 5362,
      "ĠTem": 5363,
      "Ġyouth": 5364,
      "Ġseat": 5365,
      "Ġanimal": 5366,
      "Ġreplacement": 5367,
      "rastructure": 5368,
      "Ġschol": 5369,
      "ĠJournal": 5370,
      "win": 5371,
      "ĠIndust": 5372,
      "Ġannounce": 5373,
      "Ġchart": 5374,
      "ĠSociety": 5375,
      "Ġmeasures": 5376,
      "ĠMicrosoft": 5377,
      "actions": 5378,
      "ĠUsing": 5379,
      "eared": 5380,
      "Ġguys": 5381,
      "Ġproviders": 5382,
      "elines": 5383,
      "Ġ45": 5384,
      "OD": 5385,
      "Ġgather": 5386,
      "Ġasking": 5387,
      "which": 5388,
      "mes": 5389,
      "Ġemp": 5390,
      "Ġsimpl": 5391,
      "Ġbattery": 5392,
      "29": 5393,
      "ef": 5394,
      "oration": 5395,
      "ĠHill": 5396,
      "Ġcovers": 5397,
      "Ġfailure": 5398,
      "ĠGeorge": 5399,
      "Ġmine": 5400,
      "ĠAL": 5401,
      "Ġintroduced": 5402,
      "rain": 5403,
      "azine": 5404,
      "Ġagg": 5405,
      "orough": 5406,
      "ĠMass": 5407,
      "Ġoccup": 5408,
      "Ġcircum": 5409,
      "Ġfaster": 5410,
      "Ġdogs": 5411,
      "ada": 5412,
      "ĠDoes": 5413,
      "Ġcompetitive": 5414,
      "equ": 5415,
      "vit": 5416,
      "estyle": 5417,
      "Ġcomplic": 5418,
      "ĠTeam": 5419,
      "Ġlibrary": 5420,
      "ĠFood": 5421,
      "Ġmessages": 5422,
      "Ġguarantee": 5423,
      "CH": 5424,
      "Ġfeels": 5425,
      "Ġmissing": 5426,
      "Ġhouses": 5427,
      "ĠReview": 5428,
      "ups": 5429,
      "Ġpurchased": 5430,
      "Ġrental": 5431,
      "Ġrestaurants": 5432,
      "Ġinput": 5433,
      "Ġlights": 5434,
      "âĢľ": 5435,
      "Ġnotes": 5436,
      "Ġswim": 5437,
      "Ġappreciate": 5438,
      "Ġrise": 5439,
      "ĠCentre": 5440,
      "Ġuns": 5441,
      "Ġwinning": 5442,
      "Ġlegisl": 5443,
      "ĠMaybe": 5444,
      "Ġprocedures": 5445,
      "OP": 5446,
      "Ġcharges": 5447,
      "ÑĤ": 5448,
      "Ġsitting": 5449,
      "ĠTherefore": 5450,
      "Ġinterests": 5451,
      "Ġgun": 5452,
      "akers": 5453,
      "ĠTechnology": 5454,
      "Ġmental": 5455,
      "ĠMer": 5456,
      "Ġreduced": 5457,
      "Ġsizes": 5458,
      "Ġven": 5459,
      "Ġvaluable": 5460,
      "Ġmonthly": 5461,
      "Ġtrial": 5462,
      "Ġimproved": 5463,
      "ĠCA": 5464,
      "ĠCas": 5465,
      "Ġcarefully": 5466,
      "Ġaccounts": 5467,
      "Ġinfluence": 5468,
      "ĠStand": 5469,
      "Ġtrail": 5470,
      "ĠSmith": 5471,
      "Ġrevenue": 5472,
      "Ġbutter": 5473,
      "Ġobl": 5474,
      "Ġbreakfast": 5475,
      "rete": 5476,
      "itz": 5477,
      "ests": 5478,
      "Ġpaying": 5479,
      "Ġdistribution": 5480,
      "Ġplug": 5481,
      "Ġowned": 5482,
      "pected": 5483,
      "ĠAustralian": 5484,
      "ĠMusic": 5485,
      "Ġtasks": 5486,
      "loc": 5487,
      "Ġdesire": 5488,
      "Ġamb": 5489,
      "Ġentertain": 5490,
      "Ġsides": 5491,
      "52": 5492,
      "Ġsam": 5493,
      "Ġnav": 5494,
      "Ġunc": 5495,
      "Ġspo": 5496,
      "Ġseeking": 5497,
      "ĠCarol": 5498,
      "Ġlicense": 5499,
      "Ġepis": 5500,
      "ius": 5501,
      "Ġstated": 5502,
      "Ġking": 5503,
      "Ġmeal": 5504,
      "ĠVir": 5505,
      "Ġagencies": 5506,
      "ĠLong": 5507,
      "Ġphil": 5508,
      "Ġ2000": 5509,
      "Ġdance": 5510,
      "odies": 5511,
      "Ġmanufacturing": 5512,
      "Ġeffectively": 5513,
      "rome": 5514,
      "Ġeventually": 5515,
      "Ġfixed": 5516,
      "cious": 5517,
      "eper": 5518,
      "Ġsequ": 5519,
      "Ġmonit": 5520,
      "Ġglad": 5521,
      "Ġtables": 5522,
      "Ġcake": 5523,
      "Ġresolution": 5524,
      "Ġseconds": 5525,
      "36": 5526,
      "ownt": 5527,
      "ĠBas": 5528,
      "Ġorders": 5529,
      "Ġnurs": 5530,
      "Ġremote": 5531,
      "with": 5532,
      "Ġbond": 5533,
      "ĠStep": 5534,
      "ĠWestern": 5535,
      "Ġtruck": 5536,
      "Ġvary": 5537,
      "ĠLim": 5538,
      "ibilities": 5539,
      "apos": 5540,
      "luding": 5541,
      "idden": 5542,
      "met": 5543,
      "ĠDig": 5544,
      "Ġholding": 5545,
      "Ġseemed": 5546,
      "Ġaffected": 5547,
      "Ġdoubt": 5548,
      "oosing": 5549,
      "van": 5550,
      "ĠPerson": 5551,
      "tered": 5552,
      "Ġmanual": 5553,
      "Ġhousing": 5554,
      "yal": 5555,
      "alog": 5556,
      "ario": 5557,
      "ola": 5558,
      "Ġshap": 5559,
      "ograp": 5560,
      "Ġsignificantly": 5561,
      "otton": 5562,
      "Ġdiscovered": 5563,
      "vention": 5564,
      "Ġec": 5565,
      "Ġreb": 5566,
      "umber": 5567,
      "Ġupload": 5568,
      "Ġsupported": 5569,
      "Ġprofile": 5570,
      "Ġresearc": 5571,
      "ĠRussia": 5572,
      "Ġoccasion": 5573,
      "Ð½": 5574,
      "iner": 5575,
      "Ġhearing": 5576,
      "Ġcalling": 5577,
      "Ġrealize": 5578,
      "Ġbrown": 5579,
      "48": 5580,
      "SC": 5581,
      "rics": 5582,
      "ĠEU": 5583,
      "Ġshares": 5584,
      "Ġthr": 5585,
      "Ġraise": 5586,
      "ĠProv": 5587,
      "Ġ2006": 5588,
      "Ġfactor": 5589,
      "Ġefficiency": 5590,
      "reens": 5591,
      "ĠNetwork": 5592,
      "Ġpin": 5593,
      "ĠTom": 5594,
      "Ġdecades": 5595,
      "Ġdrivers": 5596,
      "while": 5597,
      "ini": 5598,
      "Ġhar": 5599,
      "ĠCat": 5600,
      "Ġflight": 5601,
      "Ġsupporting": 5602,
      "ĠInstead": 5603,
      "Ġcommitment": 5604,
      "hone": 5605,
      "Ġminor": 5606,
      "Ġaccepted": 5607,
      "rag": 5608,
      "Ġgreatest": 5609,
      "aturing": 5610,
      "ĠFurther": 5611,
      "Ġsole": 5612,
      "iveness": 5613,
      "Ġboost": 5614,
      "Ġlaunched": 5615,
      "Ġsymbol": 5616,
      "roy": 5617,
      "Ġwheel": 5618,
      "weight": 5619,
      "Ġadministration": 5620,
      "ĠSto": 5621,
      "ĠLtd": 5622,
      "ĠNov": 5623,
      "ially": 5624,
      "ĠLead": 5625,
      "ĠAfrican": 5626,
      "ffect": 5627,
      "ĠSecond": 5628,
      "esterday": 5629,
      "Ġconvenient": 5630,
      "ĠYOU": 5631,
      "Ġparticipate": 5632,
      "ĠSen": 5633,
      "ĠView": 5634,
      "Ġcolle": 5635,
      "Ġreaders": 5636,
      "Ġtests": 5637,
      "Ġexamples": 5638,
      "Ġhousehold": 5639,
      "Ġparticipants": 5640,
      "ĠInte": 5641,
      "TA": 5642,
      "Ġintended": 5643,
      "Ġmode": 5644,
      "Ġconversation": 5645,
      "Ġtight": 5646,
      "Ġtub": 5647,
      "Ġpump": 5648,
      "Ġnor": 5649,
      "ĠAward": 5650,
      "ĠFil": 5651,
      "Ġconsumer": 5652,
      "Ġvit": 5653,
      "Ġtrend": 5654,
      "xy": 5655,
      "Ġyes": 5656,
      "Ġconsidering": 5657,
      "hand": 5658,
      "pass": 5659,
      "Ġcauses": 5660,
      "Ġengineering": 5661,
      "Ġroute": 5662,
      "eless": 5663,
      "Ġbringing": 5664,
      "Ġappointment": 5665,
      "ìĿ": 5666,
      "Ġgrown": 5667,
      "imately": 5668,
      "Ġquiet": 5669,
      "Ġscript": 5670,
      "Ĥ¬": 5671,
      "anish": 5672,
      "Ġhire": 5673,
      "Ġconflic": 5674,
      "Ġadministr": 5675,
      "net": 5676,
      "Ġcooking": 5677,
      "Ġisland": 5678,
      "Ġfreed": 5679,
      "cling": 5680,
      "ĠList": 5681,
      "ĠUnion": 5682,
      "Ġassessment": 5683,
      "Ġsurrounding": 5684,
      "rum": 5685,
      "what": 5686,
      "Ġpatterns": 5687,
      "ala": 5688,
      "imens": 5689,
      "Ġadvis": 5690,
      "ĠShow": 5691,
      "ĠSand": 5692,
      "ĠCD": 5693,
      "Ġwhom": 5694,
      "ĠLos": 5695,
      "Ġjoy": 5696,
      "Ġpharm": 5697,
      "ĠAtl": 5698,
      "ĠIP": 5699,
      "Ġperspective": 5700,
      "ĠBrown": 5701,
      "ĠInvest": 5702,
      "Ġcommand": 5703,
      "ĠConference": 5704,
      "Ġelectronic": 5705,
      "Ġtreated": 5706,
      "Ġhundreds": 5707,
      "UT": 5708,
      "gage": 5709,
      "eries": 5710,
      "Ġbound": 5711,
      "usher": 5712,
      "Ġcampus": 5713,
      "Ġofficials": 5714,
      "Ġproposed": 5715,
      "55": 5716,
      "etime": 5717,
      "Ġcreation": 5718,
      "ĠPlus": 5719,
      "Ġappearance": 5720,
      "edy": 5721,
      "ĠBi": 5722,
      "Ġperfectly": 5723,
      "Ġparking": 5724,
      "Ġped": 5725,
      "Ġchosen": 5726,
      "Ġprepar": 5727,
      "Ġbelong": 5728,
      "Ġregularly": 5729,
      "ÑĢ": 5730,
      "ĠPan": 5731,
      "ĠVict": 5732,
      "Ġsubstant": 5733,
      "Ġvictim": 5734,
      "cap": 5735,
      "Ġfo": 5736,
      "Ġupdates": 5737,
      "ĠParty": 5738,
      "ĠFamily": 5739,
      "Ġkit": 5740,
      "ĠFinally": 5741,
      "Ġpure": 5742,
      "ĠHol": 5743,
      "Ġpainting": 5744,
      "Ġunivers": 5745,
      "Ġbelief": 5746,
      "een": 5747,
      "Ġrenew": 5748,
      "Ġcutting": 5749,
      "SA": 5750,
      "ĠFollow": 5751,
      "Ġnoted": 5752,
      "Ġremaining": 5753,
      "ita": 5754,
      "lets": 5755,
      "Ġforg": 5756,
      "ĠPin": 5757,
      "Ġconsequ": 5758,
      "Ġcoach": 5759,
      "Ġwriter": 5760,
      "Ġforest": 5761,
      "ĠSometimes": 5762,
      "Ġcitizens": 5763,
      "iors": 5764,
      "Ġrough": 5765,
      "intage": 5766,
      "Ġfilter": 5767,
      "Ġsuccessfully": 5768,
      "ĠRussian": 5769,
      "Ġsupplies": 5770,
      "Ġinfrastructure": 5771,
      "ĠScott": 5772,
      "Ġpresentation": 5773,
      "Ġinnovation": 5774,
      "Ġinstructions": 5775,
      "Ġtail": 5776,
      "ician": 5777,
      "ĠHand": 5778,
      "Ġju": 5779,
      "Ġillustr": 5780,
      "orter": 5781,
      "Ġliqu": 5782,
      "ighter": 5783,
      "oga": 5784,
      "Ġgirls": 5785,
      "Ġhistorical": 5786,
      "Ġtaught": 5787,
      "Ġlabel": 5788,
      "Ġspiritual": 5789,
      "Ġcircumst": 5790,
      "Ġrecovery": 5791,
      "Ġcoup": 5792,
      "Ġsettings": 5793,
      "ĠCommittee": 5794,
      "burg": 5795,
      "Ġtrading": 5796,
      "Ġcarried": 5797,
      "Ġgrade": 5798,
      "Ġdegrees": 5799,
      "iest": 5800,
      "inations": 5801,
      "Ġdepart": 5802,
      "respond": 5803,
      "Ġpray": 5804,
      "Ġintell": 5805,
      "Ġ2005": 5806,
      "Ġfoods": 5807,
      "Ġapps": 5808,
      "dered": 5809,
      "Ġreasonable": 5810,
      "Ġsymptoms": 5811,
      "Ġneck": 5812,
      "ĠRad": 5813,
      "olly": 5814,
      "ĠCanadian": 5815,
      "Ġaccurate": 5816,
      "Ġclinical": 5817,
      "ĠSign": 5818,
      "Ġknowing": 5819,
      "Ġmini": 5820,
      "Ġassets": 5821,
      "orry": 5822,
      "Ġcontemporary": 5823,
      "Ġphase": 5824,
      "ĠAsia": 5825,
      "Ġflag": 5826,
      "Ġsigns": 5827,
      "Ġdefined": 5828,
      "Ġregistration": 5829,
      "alian": 5830,
      "Ġexcess": 5831,
      "Ġmeat": 5832,
      "39": 5833,
      "Ġchicken": 5834,
      "Ġtwice": 5835,
      "phas": 5836,
      "Ġdiam": 5837,
      "Ġneighborhood": 5838,
      "bre": 5839,
      "ua": 5840,
      "ĠÃ": 5841,
      "Ġdelight": 5842,
      "ĠON": 5843,
      "Ġkinds": 5844,
      "Ġsac": 5845,
      "erves": 5846,
      "berg": 5847,
      "Ġspaces": 5848,
      "Ġcycle": 5849,
      "Ġdumpster": 5850,
      "Ġstret": 5851,
      "related": 5852,
      "ĠChic": 5853,
      "Ġguy": 5854,
      "Ġhealthcare": 5855,
      "Ġinstitutions": 5856,
      "ĠEqu": 5857,
      "ĠKore": 5858,
      "ĠOrgan": 5859,
      "Ġdomain": 5860,
      "Ġsessions": 5861,
      "Ġfulf": 5862,
      "ĠAccess": 5863,
      "Ġrelatively": 5864,
      "Ġconcerned": 5865,
      "jo": 5866,
      "Ġsigned": 5867,
      "Ġhorse": 5868,
      "mond": 5869,
      "atre": 5870,
      "ĠCode": 5871,
      "Ġassum": 5872,
      "Ġbigger": 5873,
      "ias": 5874,
      "isco": 5875,
      "Ġresol": 5876,
      "Ġmilk": 5877,
      "urban": 5878,
      "ĠVery": 5879,
      "ta": 5880,
      "Ġfly": 5881,
      "Ġsaving": 5882,
      "Ġextract": 5883,
      "An": 5884,
      "ĠEarth": 5885,
      "aked": 5886,
      "ĠTwitter": 5887,
      "Ġchannel": 5888,
      "ĠEconom": 5889,
      "osa": 5890,
      "Ġauthent": 5891,
      "ĠArts": 5892,
      "cuit": 5893,
      "OC": 5894,
      "Ġkill": 5895,
      "appy": 5896,
      "reprene": 5897,
      "Ġresidential": 5898,
      "Ġwalls": 5899,
      "Ġdrugs": 5900,
      "Ġiron": 5901,
      "road": 5902,
      "Ġang": 5903,
      "Ġsubmit": 5904,
      "Ġprivacy": 5905,
      "ĠBur": 5906,
      "Ġpayments": 5907,
      "Ġdetermined": 5908,
      "Ġluxury": 5909,
      "ĠAdv": 5910,
      "hors": 5911,
      "Ġlifestyle": 5912,
      "38": 5913,
      "ushed": 5914,
      "ĠGlobal": 5915,
      "ĠMen": 5916,
      "ĠWomen": 5917,
      "Ġportion": 5918,
      "Ġ300": 5919,
      "Ġrail": 5920,
      "ĠParis": 5921,
      "cher": 5922,
      "ĠArab": 5923,
      "Ġpregn": 5924,
      "Ġsheet": 5925,
      "Ġconstantly": 5926,
      "Ġprop": 5927,
      "ĠRE": 5928,
      "Ġsurf": 5929,
      "ĠStudents": 5930,
      "iot": 5931,
      "ĠDa": 5932,
      "ĠOld": 5933,
      "Ġticket": 5934,
      "34": 5935,
      "rition": 5936,
      "ounder": 5937,
      "Ġben": 5938,
      "ĠHaving": 5939,
      "Ġsupports": 5940,
      "Ġidentified": 5941,
      "Ġmatters": 5942,
      "Ġath": 5943,
      "Ġagreed": 5944,
      "ĠRev": 5945,
      "Ġorganic": 5946,
      "hus": 5947,
      "ĠLab": 5948,
      "erts": 5949,
      "77": 5950,
      "but": 5951,
      "ĠTim": 5952,
      "ĠHope": 5953,
      "Ġtea": 5954,
      "nergy": 5955,
      "ixture": 5956,
      "Ġbegins": 5957,
      "ĠPeter": 5958,
      "Ġsevere": 5959,
      "ĠGen": 5960,
      "Ġperman": 5961,
      "Ġmachines": 5962,
      "aught": 5963,
      "ĠExt": 5964,
      "Ġholds": 5965,
      "Ġidentity": 5966,
      "Ġintegrated": 5967,
      "Ġguidance": 5968,
      "sm": 5969,
      "Ġtough": 5970,
      "Ġfrequently": 5971,
      "Ġdollars": 5972,
      "Ġincredible": 5973,
      "uclear": 5974,
      "Ġforces": 5975,
      "âĢĻ.": 5976,
      "Ġincl": 5977,
      "Ġhyp": 5978,
      "Ġcompr": 5979,
      "Ġfourth": 5980,
      "ĠIran": 5981,
      "Ġur": 5982,
      "Ġmut": 5983,
      "Ġrank": 5984,
      "ĠOffic": 5985,
      "Ġspr": 5986,
      "anged": 5987,
      "ificate": 5988,
      "There": 5989,
      "Ġinvestigation": 5990,
      "Ġemotional": 5991,
      "**": 5992,
      "iat": 5993,
      "poration": 5994,
      "west": 5995,
      "Ġfro": 5996,
      "ĠTest": 5997,
      "Ġstudio": 5998,
      "Ġfacilit": 5999,
      "Ġexternal": 6000,
      "Ġrisks": 6001,
      "ĠLog": 6002,
      "Â°": 6003,
      "Ġcooper": 6004,
      "endar": 6005,
      "Ġcrew": 6006,
      "ĠSoft": 6007,
      "Ġawareness": 6008,
      "LA": 6009,
      "Ġpun": 6010,
      "Ġvoc": 6011,
      "Ġpoly": 6012,
      "Ġyellow": 6013,
      "ĠLo": 6014,
      "Ġ36": 6015,
      "ĠTri": 6016,
      "Ġtrained": 6017,
      "Ġrow": 6018,
      "ĠWhich": 6019,
      "Ġreligious": 6020,
      "Ġvirtual": 6021,
      "ĠAmericans": 6022,
      "Ġbattle": 6023,
      "ĠDou": 6024,
      "istan": 6025,
      "ĠGall": 6026,
      "comes": 6027,
      "Ġcharged": 6028,
      "Ġkeeps": 6029,
      "ĠFranc": 6030,
      "Ġarrived": 6031,
      "Ġexclusive": 6032,
      "PR": 6033,
      "Ġwid": 6034,
      "Ġpu": 6035,
      "Ġmouth": 6036,
      "Ġprogramme": 6037,
      "Ġengage": 6038,
      "Ġusual": 6039,
      "Ġplanned": 6040,
      "Ġstanding": 6041,
      "ĠCy": 6042,
      "Ġwealth": 6043,
      "Ġdescription": 6044,
      "Ġmarried": 6045,
      "Ġanswers": 6046,
      "Ġstopped": 6047,
      "ĠHam": 6048,
      "Ġleather": 6049,
      "ĠKnow": 6050,
      "Ġdiss": 6051,
      "Ġrot": 6052,
      "Ġinvestors": 6053,
      ");": 6054,
      "kin": 6055,
      "Ġther": 6056,
      "Ġmel": 6057,
      "ĠNY": 6058,
      "Ġplays": 6059,
      "Ġsupposed": 6060,
      "Ġtypical": 6061,
      "Sh": 6062,
      "ban": 6063,
      "icial": 6064,
      "Ġsauce": 6065,
      "Ġregional": 6066,
      "ĠProt": 6067,
      "Ġregulations": 6068,
      "Ġcandidates": 6069,
      "IF": 6070,
      "MC": 6071,
      "Ġmal": 6072,
      "Ġeveryday": 6073,
      "Ġdefense": 6074,
      "Ġapartment": 6075,
      "Ġlit": 6076,
      "oses": 6077,
      "Ġimpressive": 6078,
      "ĠFull": 6079,
      "ĠGal": 6080,
      "ensity": 6081,
      "Ġ400": 6082,
      "Ġbroken": 6083,
      "Ġbask": 6084,
      "ĠManager": 6085,
      "37": 6086,
      "Ġcollaboration": 6087,
      "Ġbowl": 6088,
      "ĠCath": 6089,
      "ossible": 6090,
      "Ġabsor": 6091,
      "Ġnegot": 6092,
      "Ġgro": 6093,
      "ĠCH": 6094,
      "ĠNE": 6095,
      "Ġdental": 6096,
      "Ġchain": 6097,
      "inder": 6098,
      "Ġemphas": 6099,
      "Ġhosting": 6100,
      "Ġconducted": 6101,
      "PC": 6102,
      "asp": 6103,
      "ĠTour": 6104,
      "Ġconver": 6105,
      "ĠAndroid": 6106,
      "Ġmovies": 6107,
      "ndom": 6108,
      "ĠDen": 6109,
      "Ġupcoming": 6110,
      "Ġaccessible": 6111,
      "Ġrecorded": 6112,
      "ĠSeries": 6113,
      "ĠQual": 6114,
      "erry": 6115,
      "Ġexpectations": 6116,
      "Ġinvolve": 6117,
      "Ġsearching": 6118,
      "ĠAbout": 6119,
      "Ġscientific": 6120,
      "ĠAcademy": 6121,
      "ĠColl": 6122,
      "abled": 6123,
      "ĠLu": 6124,
      "osite": 6125,
      "Ġmoments": 6126,
      "ĠHotel": 6127,
      "Ġ^": 6128,
      "ĠHaw": 6129,
      "ĠDid": 6130,
      "Ġalcohol": 6131,
      "Ġcommission": 6132,
      "Ġpositions": 6133,
      "Ġwinner": 6134,
      "spe": 6135,
      "acks": 6136,
      "Ġ48": 6137,
      "Ġshoes": 6138,
      "Ġcloser": 6139,
      "Ġbonus": 6140,
      "ĠVirgin": 6141,
      "OV": 6142,
      "Ġcable": 6143,
      "ĠSU": 6144,
      "Ġstars": 6145,
      "Ġkick": 6146,
      "ĠHead": 6147,
      "Ġdesigner": 6148,
      "Ġsignal": 6149,
      "ĠBud": 6150,
      "Ġinvent": 6151,
      "Ġdiverse": 6152,
      "Ġhappening": 6153,
      "Ġcrowd": 6154,
      "TH": 6155,
      "Ġsister": 6156,
      "arrow": 6157,
      "Ġmail": 6158,
      "Ġ32": 6159,
      "Ġreceiving": 6160,
      "Ġoperate": 6161,
      "Ġqualified": 6162,
      "Ġease": 6163,
      "Ġfort": 6164,
      "Ġassemb": 6165,
      "riage": 6166,
      "Ġchoosing": 6167,
      "Ġcorrespond": 6168,
      "Ġimplementation": 6169,
      "49": 6170,
      "Ġrom": 6171,
      "Ġbread": 6172,
      "ĠDi": 6173,
      "Ġvital": 6174,
      "ulous": 6175,
      "ĠUl": 6176,
      "Ġinteg": 6177,
      "Ġequal": 6178,
      "Ġsilver": 6179,
      "secut": 6180,
      "Ġphilos": 6181,
      "look": 6182,
      "Ġvs": 6183,
      "Ġloans": 6184,
      "Ġmountain": 6185,
      "Ġatmosphere": 6186,
      "lla": 6187,
      "ey": 6188,
      "Ġthorough": 6189,
      "Ġagents": 6190,
      "ints": 6191,
      "Ġaffili": 6192,
      "Ġimprovement": 6193,
      "ĠPriv": 6194,
      "ht": 6195,
      "Ġrear": 6196,
      "ĠSqu": 6197,
      "Ġstunning": 6198,
      "Ġelectrical": 6199,
      "working": 6200,
      "ĠiPhone": 6201,
      "Ġalle": 6202,
      "Ġorganized": 6203,
      "Ġpassword": 6204,
      "ĠOrig": 6205,
      "orgeous": 6206,
      "uts": 6207,
      "Ġplate": 6208,
      "ework": 6209,
      "Ġhardware": 6210,
      "ĠDespite": 6211,
      "ait": 6212,
      "aren": 6213,
      "Ġclassroom": 6214,
      "Ġcertified": 6215,
      "Ġvillage": 6216,
      "ĠFund": 6217,
      "Ġinspiration": 6218,
      "Ġmerch": 6219,
      "Ġmig": 6220,
      "Ġends": 6221,
      "ĠVictor": 6222,
      "Ġdating": 6223,
      "Ġgear": 6224,
      "ĠMiddle": 6225,
      "ĠNor": 6226,
      "ords": 6227,
      "Ġfacing": 6228,
      "ĠRobert": 6229,
      "ĠWay": 6230,
      "Ġrandom": 6231,
      "Ġentr": 6232,
      "Ġprotected": 6233,
      "Cl": 6234,
      "ca": 6235,
      "active": 6236,
      "Ġspeaking": 6237,
      "Ġcarbon": 6238,
      "arsh": 6239,
      "ĠCEO": 6240,
      "iminal": 6241,
      "oop": 6242,
      "osh": 6243,
      "Ġserves": 6244,
      "Ġturns": 6245,
      "ĠMinister": 6246,
      "Ġbrowser": 6247,
      "Ġsituations": 6248,
      "ĠMont": 6249,
      "pel": 6250,
      "ĠOpt": 6251,
      "Ġcoordin": 6252,
      "weet": 6253,
      "Ġdistinct": 6254,
      "ĠConnect": 6255,
      "MA": 6256,
      "ĠTry": 6257,
      "ĠFarm": 6258,
      "orders": 6259,
      "Ġinformed": 6260,
      "Ġcounsel": 6261,
      "Ġchallenging": 6262,
      "rid": 6263,
      "Ġast": 6264,
      "urse": 6265,
      "Ġcreates": 6266,
      "Ġrecognized": 6267,
      "ĠTre": 6268,
      "Ġanx": 6269,
      "Ġprompt": 6270,
      "ĠApplic": 6271,
      "Ġeleg": 6272,
      "Ð¾Ð": 6273,
      "stone": 6274,
      "Ġoutstanding": 6275,
      "ĠControl": 6276,
      "Ġpartnership": 6277,
      "ÃŃ": 6278,
      "isher": 6279,
      "Ġstre": 6280,
      "ava": 6281,
      "Ġadvoc": 6282,
      "Ġcapable": 6283,
      "Ġsurprise": 6284,
      "Ġextended": 6285,
      "Ġcheese": 6286,
      "Ġclosely": 6287,
      "Ġmoist": 6288,
      "Ġscheduled": 6289,
      "].": 6290,
      "ĠEnergy": 6291,
      "elcome": 6292,
      "Ġpublish": 6293,
      "?\"": 6294,
      "va": 6295,
      "anda": 6296,
      "ĠJose": 6297,
      "Ġtopics": 6298,
      "Ġfiled": 6299,
      "ĠSP": 6300,
      "ĠCup": 6301,
      "liers": 6302,
      "ĠUnf": 6303,
      "Ġelig": 6304,
      "Ġsatisfact": 6305,
      "SE": 6306,
      "iate": 6307,
      "made": 6308,
      "ĠOper": 6309,
      "Ġappeared": 6310,
      "ĠItalian": 6311,
      "Ġgrass": 6312,
      "Ġpleased": 6313,
      "Ġcircumstances": 6314,
      "46": 6315,
      "For": 6316,
      "Ġdraft": 6317,
      "Ġmassive": 6318,
      "Ġmonitoring": 6319,
      "pes": 6320,
      "Ġtab": 6321,
      "reland": 6322,
      "Ġloves": 6323,
      "Ġarts": 6324,
      "ĠBuy": 6325,
      "Ġstyles": 6326,
      "ĠChildren": 6327,
      "uration": 6328,
      "Ġshel": 6329,
      "iked": 6330,
      "Ġsavings": 6331,
      "Ġexceed": 6332,
      "Ġshock": 6333,
      "Ġ2004": 6334,
      "Ġexecutive": 6335,
      "Ġbirthday": 6336,
      "Ġtut": 6337,
      "Ġvir": 6338,
      "Ġrid": 6339,
      "Ġundert": 6340,
      "Ġtheory": 6341,
      "irmed": 6342,
      "ĠBed": 6343,
      "ĠBob": 6344,
      "Ġcompare": 6345,
      "Ġgenerate": 6346,
      "Ġtrouble": 6347,
      "eration": 6348,
      "Ġfif": 6349,
      "ĠTown": 6350,
      "Ġheight": 6351,
      "Pro": 6352,
      "Ġcro": 6353,
      "lete": 6354,
      "ĠCost": 6355,
      "Ġdeck": 6356,
      "ultural": 6357,
      "ailable": 6358,
      "Ġtransition": 6359,
      "Ġeditor": 6360,
      "Ġcandidate": 6361,
      "ĠAngeles": 6362,
      "ĠHD": 6363,
      "ĠFair": 6364,
      "Ġlogo": 6365,
      "anges": 6366,
      "On": 6367,
      "ĠIC": 6368,
      "Ġnoticed": 6369,
      "oston": 6370,
      "Ġkilled": 6371,
      "Ġages": 6372,
      "Ġfoundation": 6373,
      "Ġmixed": 6374,
      "Ġcop": 6375,
      "oup": 6376,
      "ora": 6377,
      "ĠHosp": 6378,
      "ansion": 6379,
      "Ġmeetings": 6380,
      "Ġfreedom": 6381,
      "Ġ..": 6382,
      "Ġchat": 6383,
      "Ġpersonally": 6384,
      "Ġrevealed": 6385,
      "ĠLouis": 6386,
      "Ġmir": 6387,
      "ĠFestival": 6388,
      "gging": 6389,
      "Ġfailed": 6390,
      "Ġwitness": 6391,
      "ĠFederal": 6392,
      "Ġscr": 6393,
      "Ġentered": 6394,
      "Ġdifferences": 6395,
      "ĠEnjoy": 6396,
      "31": 6397,
      "Ñģ": 6398,
      "ĠCre": 6399,
      "ĠMike": 6400,
      "ĠHi": 6401,
      "ĠEr": 6402,
      "Ġtechnique": 6403,
      "Ġmattress": 6404,
      "Ġtiss": 6405,
      "ĠTimes": 6406,
      "Ġgolf": 6407,
      "Ġcolumn": 6408,
      "ĠDisc": 6409,
      "TC": 6410,
      "Ġbes": 6411,
      "ĠAri": 6412,
      "????": 6413,
      "ĠChicago": 6414,
      "Re": 6415,
      "yard": 6416,
      "Ġnine": 6417,
      "Ġupper": 6418,
      "Ġcontrast": 6419,
      "Ġapparent": 6420,
      "ĠSpanish": 6421,
      "ĠMedia": 6422,
      "Ġfolks": 6423,
      "ĠWil": 6424,
      "Ġunlike": 6425,
      "Ġinterface": 6426,
      "Ġbooking": 6427,
      "Ġlayer": 6428,
      "Ġindeed": 6429,
      "Ġimagine": 6430,
      "Ġattorney": 6431,
      "ĠIreland": 6432,
      "oster": 6433,
      "achel": 6434,
      "Ġdiscl": 6435,
      "Ġemployment": 6436,
      "Ġnearby": 6437,
      "Ġroutine": 6438,
      "ĠLearn": 6439,
      "Ġscholars": 6440,
      "Ġshed": 6441,
      "ilst": 6442,
      "asts": 6443,
      "Ġstands": 6444,
      "Ġincreases": 6445,
      "Ġpicked": 6446,
      "Ġdepth": 6447,
      "ĠId": 6448,
      "ĠHim": 6449,
      "Ġpricing": 6450,
      "ĠPlace": 6451,
      "Ġparam": 6452,
      "Ġfeatured": 6453,
      "Ġsustainable": 6454,
      "Ġaf": 6455,
      "ĠBeaut": 6456,
      "Ġlandscape": 6457,
      "47": 6458,
      "Ġsoil": 6459,
      "Ġflexible": 6460,
      "Ġdangerous": 6461,
      "Ġentertainment": 6462,
      "roph": 6463,
      "Ġforced": 6464,
      "Ġnetworks": 6465,
      "ĠAuthor": 6466,
      "Ġfemale": 6467,
      "Ġreputation": 6468,
      "Ġnone": 6469,
      "etary": 6470,
      "Ġarrest": 6471,
      "ĠAdminist": 6472,
      "Ġcelebrate": 6473,
      "Ġresearchers": 6474,
      "han": 6475,
      "Ġelection": 6476,
      "stal": 6477,
      "Ġtrig": 6478,
      "ĠSC": 6479,
      "ĠCab": 6480,
      "Ġvast": 6481,
      "Ġguidelines": 6482,
      "ĠHuman": 6483,
      "Ø§": 6484,
      "ĠFile": 6485,
      "ĠGar": 6486,
      "Ġsan": 6487,
      "orable": 6488,
      "Ġnative": 6489,
      "lymp": 6490,
      "ĠWatch": 6491,
      "Ġquote": 6492,
      "Ġwhenever": 6493,
      "Ġdent": 6494,
      "Ġyesterday": 6495,
      "Ġclothes": 6496,
      "Ġunable": 6497,
      "Ġcontribute": 6498,
      "azz": 6499,
      "aturally": 6500,
      "holders": 6501,
      "When": 6502,
      "Ġweap": 6503,
      "ĠYet": 6504,
      "rency": 6505,
      "Ġsyn": 6506,
      "Ġenthus": 6507,
      "Ġresulting": 6508,
      "Ġvend": 6509,
      "ĠKey": 6510,
      "dden": 6511,
      "uine": 6512,
      "Ġoven": 6513,
      "Ġhur": 6514,
      "Ġmainly": 6515,
      "Ġdefault": 6516,
      "Ġlapt": 6517,
      "ographic": 6518,
      "Ġgraduate": 6519,
      "ĠSupport": 6520,
      "Ġfavourite": 6521,
      "ĠÎ": 6522,
      "ĠAud": 6523,
      "ĠMic": 6524,
      "ĠMult": 6525,
      "Ġmeals": 6526,
      "Ġhandling": 6527,
      "Ġexpenses": 6528,
      "ĠShould": 6529,
      "owntown": 6530,
      "inn": 6531,
      "Ġpipe": 6532,
      "ĠSea": 6533,
      "Ġvisited": 6534,
      "Ġentirely": 6535,
      "Ġdestination": 6536,
      "ĠLow": 6537,
      "ĠFrank": 6538,
      "Ġentreprene": 6539,
      "Ġworldwide": 6540,
      "Ġreturns": 6541,
      "Ġfitness": 6542,
      "Ġremoval": 6543,
      "Ġawarded": 6544,
      "ĠThus": 6545,
      "Ġfeaturing": 6546,
      "Ġcommunications": 6547,
      "Ġdomin": 6548,
      "idays": 6549,
      "Ġworse": 6550,
      "ĠSecret": 6551,
      "ĠGeorg": 6552,
      "ĠBible": 6553,
      "Ġsudden": 6554,
      "Ġmedicine": 6555,
      "Ġedition": 6556,
      "Ġtalent": 6557,
      "car": 6558,
      "nic": 6559,
      "ĠAR": 6560,
      "Ġproof": 6561,
      "ĠRight": 6562,
      "Ġflood": 6563,
      "Ġbless": 6564,
      "Ġskill": 6565,
      "Ġvacation": 6566,
      "41": 6567,
      "Ġarg": 6568,
      "Ġretire": 6569,
      "ĠCoast": 6570,
      "ĠDisney": 6571,
      "Ġnormally": 6572,
      "ĠSpring": 6573,
      "Ñĸ": 6574,
      "Ġstorm": 6575,
      "Ġmissed": 6576,
      "Ġcrucial": 6577,
      "How": 6578,
      "ĠPac": 6579,
      "Ġshops": 6580,
      "Ġinches": 6581,
      "berry": 6582,
      "Ġauthors": 6583,
      "Ġsky": 6584,
      "Ġmechanism": 6585,
      "ĠUnfortunately": 6586,
      "bur": 6587,
      "ĠLook": 6588,
      "ĠVill": 6589,
      "Ġrecy": 6590,
      "ĠLeague": 6591,
      "ĠDigital": 6592,
      "fa": 6593,
      "Ġmic": 6594,
      "Ġengagement": 6595,
      "arian": 6596,
      "race": 6597,
      "ĠPDF": 6598,
      "bles": 6599,
      "writ": 6600,
      "Ġpil": 6601,
      "Ġgifts": 6602,
      "ĠPack": 6603,
      "ĠJud": 6604,
      "ĠWebs": 6605,
      "Ġexposure": 6606,
      "Ġexplained": 6607,
      "Ġauthority": 6608,
      "Ġcollected": 6609,
      "ĠMexico": 6610,
      "?âĢĿ": 6611,
      "ras": 6612,
      "Ġcaught": 6613,
      "ĠFig": 6614,
      "Ġmere": 6615,
      "Ġinstrument": 6616,
      "celer": 6617,
      "irty": 6618,
      "away": 6619,
      "Ġpasseng": 6620,
      "ĠIslam": 6621,
      "Ġmusical": 6622,
      "Ġtrends": 6623,
      "Ġimmig": 6624,
      "Ġconsistent": 6625,
      "Ġprecise": 6626,
      "ĠClean": 6627,
      "Ġram": 6628,
      "Ġrein": 6629,
      "ĠMP": 6630,
      "ĠMax": 6631,
      "Ġchief": 6632,
      "Ġdisappoint": 6633,
      "UL": 6634,
      "ĠIll": 6635,
      "igan": 6636,
      "Ġjack": 6637,
      "Ġphotography": 6638,
      "ĠTrust": 6639,
      "Ġreplaced": 6640,
      "Ġobvious": 6641,
      "Ġicon": 6642,
      "Ġsad": 6643,
      "Ġpod": 6644,
      "Ġmuseum": 6645,
      "Ġord": 6646,
      "ellect": 6647,
      "Ġmonitor": 6648,
      "ĠScot": 6649,
      "Ġdomestic": 6650,
      "gas": 6651,
      "tics": 6652,
      "Ġfishing": 6653,
      "ĠRa": 6654,
      "ĠOlymp": 6655,
      "ĠThough": 6656,
      "ĠBuilding": 6657,
      "omy": 6658,
      "astern": 6659,
      "cknow": 6660,
      "ĠOk": 6661,
      "resents": 6662,
      "Ġoffices": 6663,
      "luded": 6664,
      "ushing": 6665,
      "Ġancient": 6666,
      "can": 6667,
      "Ġturning": 6668,
      "Ġsoul": 6669,
      "ena": 6670,
      "Ġgrew": 6671,
      "Ġchapter": 6672,
      "Ġcompens": 6673,
      "Ġdelay": 6674,
      "merce": 6675,
      "Ġformed": 6676,
      "igned": 6677,
      "Ġfaculty": 6678,
      "ĠWilliam": 6679,
      "Ġpreparation": 6680,
      "Ġsin": 6681,
      "illy": 6682,
      "Ġhero": 6683,
      "profit": 6684,
      "Ġoriginally": 6685,
      "ja": 6686,
      "arks": 6687,
      "ĠSuch": 6688,
      "ĠLand": 6689,
      "Ġempt": 6690,
      "Ġguitar": 6691,
      "Ġtells": 6692,
      "REE": 6693,
      "Ġtiny": 6694,
      "Ġstim": 6695,
      "Ġroot": 6696,
      "ĠDeath": 6697,
      "atoes": 6698,
      "ĠRoyal": 6699,
      "wing": 6700,
      "ĠCe": 6701,
      "ĠBoston": 6702,
      "Ġvul": 6703,
      "Ġmining": 6704,
      "Ġgenerated": 6705,
      "Ġdealing": 6706,
      "Ġtaxes": 6707,
      "Ġobtained": 6708,
      "ingly": 6709,
      "ĠCa": 6710,
      "alled": 6711,
      "ĠColumb": 6712,
      "Ġpercentage": 6713,
      "Ġconcrete": 6714,
      "rieved": 6715,
      "Ġrecognize": 6716,
      "Ġfairly": 6717,
      "atell": 6718,
      "ogue": 6719,
      "ophy": 6720,
      "Ġworkshop": 6721,
      "Ġprinted": 6722,
      "ĠAccount": 6723,
      "Ġarrive": 6724,
      "Ġliquid": 6725,
      "66": 6726,
      "Ġlosing": 6727,
      "âĢĻ,": 6728,
      "Ġdeploy": 6729,
      "hered": 6730,
      "Ġwet": 6731,
      "ĠTru": 6732,
      "ĠMat": 6733,
      "umes": 6734,
      "Ġarms": 6735,
      "Ġimpossible": 6736,
      "ĠDef": 6737,
      "Ġfirms": 6738,
      "ĠDecor": 6739,
      "Ġocean": 6740,
      "ĠRest": 6741,
      "Ġboys": 6742,
      "Ġadventure": 6743,
      "Ġdepends": 6744,
      "Ġincorpor": 6745,
      "ĠLib": 6746,
      "Ġsuc": 6747,
      "duate": 6748,
      "Ġgallery": 6749,
      "inem": 6750,
      "ĠDev": 6751,
      "Ġresistance": 6752,
      "ĠDemocr": 6753,
      "ĠEngineering": 6754,
      "Ġtur": 6755,
      "Ġwearing": 6756,
      "Ġtech": 6757,
      "Ġrepresents": 6758,
      "Ġattached": 6759,
      "Ġmanaging": 6760,
      "ĠCharl": 6761,
      "Ġcontest": 6762,
      "Ġcertification": 6763,
      "Ġreducing": 6764,
      "nament": 6765,
      "ĠCongress": 6766,
      "%.": 6767,
      "AB": 6768,
      "Ġcotton": 6769,
      "Ġindex": 6770,
      "Ġlistening": 6771,
      "Ġenterprise": 6772,
      "Ġbags": 6773,
      "rated": 6774,
      "Ġtank": 6775,
      "Ġpill": 6776,
      "elf": 6777,
      "ĠRoom": 6778,
      "Ġcrisis": 6779,
      "Ġtooth": 6780,
      "Ġhang": 6781,
      "ppers": 6782,
      "ĠFun": 6783,
      "ĠFort": 6784,
      "Ġimproving": 6785,
      "Ġwireless": 6786,
      "lements": 6787,
      "Ġbear": 6788,
      "ĠSci": 6789,
      "Ġstrategic": 6790,
      "GB": 6791,
      "under": 6792,
      "alle": 6793,
      "Ġreward": 6794,
      "comm": 6795,
      "Ex": 6796,
      "Ġrenov": 6797,
      "Ġdiscip": 6798,
      "Ġ75": 6799,
      "Ġauthorities": 6800,
      "Ġelev": 6801,
      "Ġbanks": 6802,
      "ĠCond": 6803,
      "Ġrecipes": 6804,
      "Ġinterpret": 6805,
      "Ġbasket": 6806,
      "ml": 6807,
      "Ġconvey": 6808,
      "ĠJul": 6809,
      "Ġtelling": 6810,
      "Ġclothing": 6811,
      "ĠStore": 6812,
      "ĠChris": 6813,
      "Ġindustries": 6814,
      "Ġstructures": 6815,
      "Ġriver": 6816,
      "ii": 6817,
      "Ġacknow": 6818,
      "ĠHistory": 6819,
      "folio": 6820,
      "ĠEnd": 6821,
      "Ġapplicable": 6822,
      "Ġearned": 6823,
      "Ġjudge": 6824,
      "Ġsynt": 6825,
      "Ġavailability": 6826,
      "Ġconcl": 6827,
      "Ġplatforms": 6828,
      "Ġdynamic": 6829,
      "Is": 6830,
      "UN": 6831,
      "cue": 6832,
      "kers": 6833,
      "Ġdates": 6834,
      "Ġproven": 6835,
      "ĠNever": 6836,
      "Ġteen": 6837,
      "Ġmembership": 6838,
      "ĠInstagram": 6839,
      "she": 6840,
      "Ġbeer": 6841,
      "ĠChair": 6842,
      "Ġdesired": 6843,
      "Ġsubsequ": 6844,
      "ĠPrem": 6845,
      "inch": 6846,
      "Ġongoing": 6847,
      "ĠMS": 6848,
      "ache": 6849,
      "izer": 6850,
      "Ġrealized": 6851,
      "ennis": 6852,
      "Ġinjuries": 6853,
      "ĠObama": 6854,
      "Ġlicensed": 6855,
      "ading": 6856,
      "Ġofficer": 6857,
      "Ġmillions": 6858,
      "Ġachieved": 6859,
      "uct": 6860,
      "Ġbell": 6861,
      "Ġstored": 6862,
      "ĠWeek": 6863,
      "Ġconstant": 6864,
      "Ġrecording": 6865,
      "essel": 6866,
      "Ġdust": 6867,
      "ĠCra": 6868,
      "ĠDC": 6869,
      "ĠPhys": 6870,
      "05": 6871,
      "tr": 6872,
      "ĠMA": 6873,
      "ĠPass": 6874,
      "Ġenables": 6875,
      "Ġdiscussed": 6876,
      "Ġsuggested": 6877,
      "yan": 6878,
      "Ġpm": 6879,
      "Ġstake": 6880,
      "ĠPoint": 6881,
      "quir": 6882,
      "Ġjew": 6883,
      "Ġextension": 6884,
      "Ġlessons": 6885,
      "case": 6886,
      "Ġpapers": 6887,
      "Ġshift": 6888,
      "Ġdescribe": 6889,
      "gers": 6890,
      "Ġfal": 6891,
      "Ġgorgeous": 6892,
      "Ġstain": 6893,
      "agon": 6894,
      "Ġconfident": 6895,
      "Ġtreatments": 6896,
      "Ġreduction": 6897,
      "Ġsucceed": 6898,
      "level": 6899,
      "Ġheav": 6900,
      "ĠExpl": 6901,
      "Ġveter": 6902,
      "ĠSpirit": 6903,
      "Ġtested": 6904,
      "ran": 6905,
      "Ġodd": 6906,
      "ĠCross": 6907,
      "ĠChief": 6908,
      "Ġexpression": 6909,
      "Ġreporting": 6910,
      "Ġmagic": 6911,
      "Ġcomponent": 6912,
      "Ġarchitecture": 6913,
      "Ġawards": 6914,
      "Ġordered": 6915,
      "ĠItaly": 6916,
      "Ġprimarily": 6917,
      "Ġfellow": 6918,
      "Ġmanufacturers": 6919,
      "Ġcute": 6920,
      "Ġflower": 6921,
      "Ġrelief": 6922,
      "ĠBeing": 6923,
      "ĠExecut": 6924,
      "Ġobjects": 6925,
      "íķ": 6926,
      "Ġpursu": 6927,
      "Ġsuperior": 6928,
      "Ġanticip": 6929,
      "Ġlinked": 6930,
      "ĠCurrent": 6931,
      "HS": 6932,
      "icit": 6933,
      "ĠAT": 6934,
      "ĠCast": 6935,
      "ideo": 6936,
      "ears": 6937,
      "ĠYouT": 6938,
      "Ġgrab": 6939,
      "Ġfounded": 6940,
      "Ġfacts": 6941,
      "Ġathlet": 6942,
      "eding": 6943,
      "ĠCreat": 6944,
      "ifies": 6945,
      "ĠFord": 6946,
      "Ġcompliance": 6947,
      "Ġdevelopers": 6948,
      "Ġcrack": 6949,
      "ĠCO": 6950,
      "quality": 6951,
      "Ġrose": 6952,
      "Ġinvited": 6953,
      "Ġpossibility": 6954,
      "ĠAuto": 6955,
      "ĠRemember": 6956,
      "Ġultimately": 6957,
      "ĠAssist": 6958,
      "EG": 6959,
      "Ġunp": 6960,
      "Ġstring": 6961,
      "Ġphotograp": 6962,
      "eto": 6963,
      "ĠPub": 6964,
      "ĠRoman": 6965,
      "Ġstatements": 6966,
      "Ġairport": 6967,
      "Ġinvolves": 6968,
      "85": 6969,
      "erning": 6970,
      "Ġbodies": 6971,
      "Ġlad": 6972,
      "ĠLittle": 6973,
      "Ġsufficient": 6974,
      "ĠLee": 6975,
      "Ġversions": 6976,
      "Ġattended": 6977,
      "Ġfigures": 6978,
      "!\"": 6979,
      "ĠSite": 6980,
      "ĠLibrary": 6981,
      "Ġhistoric": 6982,
      "MP": 6983,
      "pire": 6984,
      "Ġtap": 6985,
      "Ġok": 6986,
      "oral": 6987,
      "Ġthin": 6988,
      "Ġadds": 6989,
      "Ġapproval": 6990,
      "Ġliability": 6991,
      "42": 6992,
      "EE": 6993,
      "Our": 6994,
      "enced": 6995,
      "Ġliked": 6996,
      "ĠSn": 6997,
      "abet": 6998,
      "Ġletters": 6999,
      "Ġelectricity": 7000,
      "ĠMartin": 7001,
      "tle": 7002,
      "vy": 7003,
      "Ġrig": 7004,
      "Ġcommunicate": 7005,
      "Ġtransportation": 7006,
      "ĠInsurance": 7007,
      "ĠThomas": 7008,
      "ye": 7009,
      "Ġsight": 7010,
      "nda": 7011,
      "itage": 7012,
      "Ġforth": 7013,
      "ĠUt": 7014,
      "Ġloving": 7015,
      "ĠSaf": 7016,
      "Ġbottle": 7017,
      "Ġattractive": 7018,
      "law": 7019,
      "ĠWild": 7020,
      "uls": 7021,
      "Ġsolve": 7022,
      "Ġsurprised": 7023,
      "Ġblend": 7024,
      "ĠSystems": 7025,
      "Ġmortgage": 7026,
      "cers": 7027,
      "Ġmur": 7028,
      "Ġnuclear": 7029,
      "ether": 7030,
      "umps": 7031,
      "Ġrelative": 7032,
      "Ġconfirmed": 7033,
      "Ġfilms": 7034,
      "mary": 7035,
      "oured": 7036,
      "ĠDub": 7037,
      "Ġspeech": 7038,
      "Ġextent": 7039,
      "Ġcriminal": 7040,
      "ĠSilver": 7041,
      "ĠJewish": 7042,
      "Ġinch": 7043,
      "Ġaside": 7044,
      "Ġpassing": 7045,
      "Ġspecialist": 7046,
      "Ġcrime": 7047,
      "Ġequipped": 7048,
      "Ġcapabilities": 7049,
      "AA": 7050,
      "df": 7051,
      "uster": 7052,
      "ĠOS": 7053,
      "Ġsaved": 7054,
      "Ġguard": 7055,
      "Ġimmediate": 7056,
      "Be": 7057,
      "FC": 7058,
      "ĠMur": 7059,
      "Ġbridge": 7060,
      "Ġhumans": 7061,
      "Ġlayout": 7062,
      "Ġsusp": 7063,
      "Ġdefend": 7064,
      "bel": 7065,
      "Ġperforming": 7066,
      "Ġyounger": 7067,
      "Ġgenuine": 7068,
      "aid": 7069,
      "yers": 7070,
      "Ġmixture": 7071,
      "Ġprove": 7072,
      "agra": 7073,
      "Ġensuring": 7074,
      "Ġultimate": 7075,
      "Ġerrors": 7076,
      "Ġreferred": 7077,
      "Ġvegetables": 7078,
      "ĠWebsite": 7079,
      "ĠCB": 7080,
      "ĠEss": 7081,
      "Ġclar": 7082,
      "Ġresume": 7083,
      "Ġrecommendations": 7084,
      "Ġduty": 7085,
      "worth": 7086,
      "Ġwest": 7087,
      "ctic": 7088,
      "ĠCro": 7089,
      "Ġhealing": 7090,
      "Ġtape": 7091,
      "Ġtransp": 7092,
      "Ġplanet": 7093,
      "ĠSmall": 7094,
      "Ġcategories": 7095,
      "ĠSouthern": 7096,
      "Ġentit": 7097,
      "Ġpenal": 7098,
      "ĠMachine": 7099,
      "ĠLED": 7100,
      "asters": 7101,
      "Ġrequirement": 7102,
      "Ã¼": 7103,
      "Ġchose": 7104,
      "Ġwidely": 7105,
      "ĠPolice": 7106,
      "oty": 7107,
      "Ġsmile": 7108,
      "Ġbuyers": 7109,
      "Ġtelevision": 7110,
      "Ġargument": 7111,
      "edia": 7112,
      "ĠGame": 7113,
      "Ġflour": 7114,
      "Ġmarks": 7115,
      "Ġgarage": 7116,
      "ĠMarketing": 7117,
      "ĠAdditionally": 7118,
      "Ġvulner": 7119,
      "bi": 7120,
      "ĠSky": 7121,
      "ĠRoll": 7122,
      "Ġepisode": 7123,
      "II": 7124,
      "sters": 7125,
      "otic": 7126,
      "apore": 7127,
      "Ġcoat": 7128,
      "Ġtrick": 7129,
      "ĠReport": 7130,
      "Ġcontainer": 7131,
      "site": 7132,
      "hew": 7133,
      "Ġreject": 7134,
      "ĠTerm": 7135,
      "ĠWould": 7136,
      "ĠInf": 7137,
      "Ġmanagers": 7138,
      "Ġcapture": 7139,
      "02": 7140,
      "EA": 7141,
      "VD": 7142,
      "uction": 7143,
      "Ġmg": 7144,
      "entle": 7145,
      "ĠAff": 7146,
      "iments": 7147,
      "Ġwithd": 7148,
      "ĠKen": 7149,
      "Ġdecade": 7150,
      "Ġevol": 7151,
      "Ġaccomplish": 7152,
      "Ġsamples": 7153,
      "78": 7154,
      "erate": 7155,
      "owing": 7156,
      "eline": 7157,
      "ĠComple": 7158,
      "ĠZeal": 7159,
      "Ġsensitive": 7160,
      "ns": 7161,
      "Ġborder": 7162,
      "asant": 7163,
      "irts": 7164,
      "ĠPenn": 7165,
      "Ġwash": 7166,
      "ĠGames": 7167,
      "Ġkne": 7168,
      "Ġfinance": 7169,
      "ĠTraining": 7170,
      "ĠBox": 7171,
      "Ġupgrade": 7172,
      "Con": 7173,
      "Ġmm": 7174,
      "ĠPut": 7175,
      "iform": 7176,
      "Ġherself": 7177,
      "amps": 7178,
      "ĠShop": 7179,
      "Ġcontrols": 7180,
      "ĠAgain": 7181,
      "build": 7182,
      "Ġestimated": 7183,
      "Ġterror": 7184,
      "oh": 7185,
      "Ġscan": 7186,
      "Ġexperiment": 7187,
      "Ġslot": 7188,
      "Ġhonor": 7189,
      "Ġincreasingly": 7190,
      "FL": 7191,
      "ĠPot": 7192,
      "Ġhabit": 7193,
      "ĠFour": 7194,
      "Ġdoctors": 7195,
      "Ġsomewhat": 7196,
      "Ġorganis": 7197,
      "Ġcritic": 7198,
      "Ġchannels": 7199,
      "Ġprinciples": 7200,
      "dney": 7201,
      "front": 7202,
      "ĠWalk": 7203,
      "ĠEs": 7204,
      "Ġcharm": 7205,
      "Ġformal": 7206,
      "Ġfunctional": 7207,
      "Ġ150": 7208,
      "Ġalumin": 7209,
      "ogen": 7210,
      "Ġseriously": 7211,
      "Ġwriters": 7212,
      "tocol": 7213,
      "Ġflash": 7214,
      "Ġsmell": 7215,
      "ĠOrder": 7216,
      "Ġcommonly": 7217,
      "Ġillness": 7218,
      "holder": 7219,
      "Ġspeaker": 7220,
      "zes": 7221,
      "Ġtall": 7222,
      "Ġsoph": 7223,
      "ĠAp": 7224,
      "Ġseats": 7225,
      "odel": 7226,
      "Ġconsists": 7227,
      "ĠCarolina": 7228,
      "ĠHen": 7229,
      "Ġvessel": 7230,
      "ĠLin": 7231,
      "Ġadm": 7232,
      "Ġproducing": 7233,
      "Ġbehalf": 7234,
      "ĠPrint": 7235,
      "Ġcomparison": 7236,
      "Ġcontrolled": 7237,
      "ĠMid": 7238,
      "isters": 7239,
      "ĠEst": 7240,
      "Ġscope": 7241,
      "ĠHeart": 7242,
      "ĠComput": 7243,
      "Ġmotion": 7244,
      "Ġid": 7245,
      "ĠAD": 7246,
      "Ġinstruction": 7247,
      "you": 7248,
      "Ġmand": 7249,
      "ansas": 7250,
      "Ġunex": 7251,
      "ĠPrice": 7252,
      "____": 7253,
      "Ġvictory": 7254,
      "Ġexhibition": 7255,
      "GE": 7256,
      "Ġfib": 7257,
      "Ġhall": 7258,
      "ĠNorthern": 7259,
      "neys": 7260,
      "Ġsuppliers": 7261,
      "Ġaccessories": 7262,
      "Ġregardless": 7263,
      "Ġdiseases": 7264,
      "ĠIrish": 7265,
      "Ġstretch": 7266,
      "ĠVirginia": 7267,
      "long": 7268,
      "ĠCir": 7269,
      "ĠPS": 7270,
      "ĠJones": 7271,
      "Ġagric": 7272,
      "Ġlegs": 7273,
      "Ġpanels": 7274,
      "Ġscheme": 7275,
      "Ġlikes": 7276,
      "Ġsatisfaction": 7277,
      "ĠZealand": 7278,
      "01": 7279,
      "real": 7280,
      "Ġcos": 7281,
      "Ġhidden": 7282,
      "ĠDie": 7283,
      "Ġpermission": 7284,
      "Ġtrave": 7285,
      "iverse": 7286,
      "Ġpriority": 7287,
      "Ġhospit": 7288,
      "Ġfestival": 7289,
      "Ġbare": 7290,
      "stream": 7291,
      "Ġvent": 7292,
      "ĠLooking": 7293,
      "Ġcompat": 7294,
      "Ġoutcomes": 7295,
      "ĠVer": 7296,
      "Ġ2001": 7297,
      "Ġsignature": 7298,
      "Ġfollows": 7299,
      "ĠOhio": 7300,
      "ĠMountain": 7301,
      "ĠYouTube": 7302,
      "ĠNon": 7303,
      "class": 7304,
      "Ġforecast": 7305,
      "Ġzone": 7306,
      "Ġintroduction": 7307,
      "Ġexception": 7308,
      "Ġbelieved": 7309,
      "friendly": 7310,
      "Ġeligible": 7311,
      "zing": 7312,
      "ĠHa": 7313,
      "Ġoverw": 7314,
      "Ġstrict": 7315,
      "cover": 7316,
      "Ġengaged": 7317,
      "Ġhotels": 7318,
      "My": 7319,
      "Ġwra": 7320,
      "Ġpink": 7321,
      "Ġnarrow": 7322,
      "ĠWin": 7323,
      "Ġenforce": 7324,
      "ĠChampions": 7325,
      "ĠConf": 7326,
      "ĠPerhaps": 7327,
      "born": 7328,
      "och": 7329,
      "Ġcodes": 7330,
      "Ġstir": 7331,
      "Ġvintage": 7332,
      "ĠStill": 7333,
      "anger": 7334,
      "Ġmuscle": 7335,
      "hire": 7336,
      "Ġsick": 7337,
      "Ġfasc": 7338,
      "ingu": 7339,
      "charge": 7340,
      "Ġ37": 7341,
      "Ġtransactions": 7342,
      "Ġsubmitted": 7343,
      "Ġintellect": 7344,
      "Ġpromise": 7345,
      "ĠPract": 7346,
      "Ġdiagram": 7347,
      "Ġofficers": 7348,
      "ĠAgree": 7349,
      "Ġsail": 7350,
      "Ġkm": 7351,
      "Ġattach": 7352,
      "iable": 7353,
      "ione": 7354,
      "Ġcontained": 7355,
      "ĠProper": 7356,
      "RI": 7357,
      "zer": 7358,
      "Ġ!": 7359,
      "Ġsuffering": 7360,
      "Ġauthentic": 7361,
      "57": 7362,
      "LS": 7363,
      "date": 7364,
      "Ġphones": 7365,
      "iano": 7366,
      "Ġ2003": 7367,
      "ugs": 7368,
      "Ġflavor": 7369,
      "ĠExecutive": 7370,
      "Ġurban": 7371,
      "Ġinner": 7372,
      "rad": 7373,
      "Ġstations": 7374,
      "Ġsomewhere": 7375,
      "Ġtracks": 7376,
      "Ġraw": 7377,
      "ATION": 7378,
      "ĠJackson": 7379,
      "bits": 7380,
      "ĠCook": 7381,
      "Ġvibr": 7382,
      "Ġjustice": 7383,
      "Ġcookies": 7384,
      "Ġdrawing": 7385,
      "ĠJeff": 7386,
      "Ġbreath": 7387,
      "Ġtomorrow": 7388,
      "missions": 7389,
      "isk": 7390,
      "iser": 7391,
      "Ġrecon": 7392,
      "Ġunderst": 7393,
      "Ġapproaches": 7394,
      "Ġattacks": 7395,
      "Ġviolence": 7396,
      "Ġrely": 7397,
      "ĠBell": 7398,
      "Ġsharp": 7399,
      "Ġreader": 7400,
      "including": 7401,
      "EST": 7402,
      "Ġcommittee": 7403,
      "rich": 7404,
      "Ġincident": 7405,
      "Ġconcerning": 7406,
      "Ġrequests": 7407,
      "Ġframework": 7408,
      "Ġfighting": 7409,
      "Ġevaluation": 7410,
      "then": 7411,
      "ĠTax": 7412,
      "Ġrating": 7413,
      "Ġhomeown": 7414,
      "Ġlists": 7415,
      "ĠNeed": 7416,
      "ĠMean": 7417,
      "Ġpotentially": 7418,
      "âĢ²âĢ²": 7419,
      "Ġwarn": 7420,
      "Ġol": 7421,
      "Ġfru": 7422,
      "ican": 7423,
      "utch": 7424,
      "ĠPA": 7425,
      "gend": 7426,
      "Ġdisplayed": 7427,
      "Ġslowly": 7428,
      "ĠSingapore": 7429,
      "08": 7430,
      "onto": 7431,
      "Ġnaturally": 7432,
      "igate": 7433,
      "izza": 7434,
      "Ġregions": 7435,
      "Ġcarrying": 7436,
      "ĠHelp": 7437,
      "Ġpermanent": 7438,
      "anes": 7439,
      "Ġine": 7440,
      "pection": 7441,
      "Ġdispl": 7442,
      "Ġpoker": 7443,
      "Ġbelt": 7444,
      "zil": 7445,
      "ĠSanta": 7446,
      "ĠCR": 7447,
      "ĠBow": 7448,
      "Ġresort": 7449,
      "Ġexpansion": 7450,
      "Ġmoves": 7451,
      "Ġjoining": 7452,
      "ĠTravel": 7453,
      "Ġsubscrib": 7454,
      "Ġprospect": 7455,
      "ĠProfessor": 7456,
      "Ġalongside": 7457,
      "Ġtemplate": 7458,
      "sis": 7459,
      "etry": 7460,
      "ĠBall": 7461,
      "iece": 7462,
      "ĠThree": 7463,
      "Ġopposite": 7464,
      "Ġconnections": 7465,
      "ĠSmart": 7466,
      "Ġincredibly": 7467,
      "ĠSummer": 7468,
      "ĠHard": 7469,
      "ĠFREE": 7470,
      "ĠRose": 7471,
      "Ġspin": 7472,
      "Ġamounts": 7473,
      "ĠRetrieved": 7474,
      "Ġconflict": 7475,
      "Ġfalse": 7476,
      "rants": 7477,
      "ument": 7478,
      "Ġmold": 7479,
      "ulum": 7480,
      "ĠEp": 7481,
      "Ġinsight": 7482,
      "Ġcounty": 7483,
      "Ġapplying": 7484,
      "Ġpowder": 7485,
      "ĠJersey": 7486,
      "kins": 7487,
      "Ã³": 7488,
      "Ġshots": 7489,
      "Ġkil": 7490,
      "Ġtradem": 7491,
      "aken": 7492,
      "rowse": 7493,
      "ĠCommon": 7494,
      "Ġfunctionality": 7495,
      "Ġwalked": 7496,
      "ĠIdeas": 7497,
      "ĠGeorgia": 7498,
      "04": 7499,
      "ati": 7500,
      "iler": 7501,
      "hyd": 7502,
      "Ġreligion": 7503,
      "ĠStock": 7504,
      "Ġacts": 7505,
      "Ġexport": 7506,
      "Ġintent": 7507,
      "Ġportfolio": 7508,
      "Ġhoping": 7509,
      "uing": 7510,
      "Ġ<": 7511,
      "ĠMov": 7512,
      "Ġusage": 7513,
      "Ġ33": 7514,
      "Ġroles": 7515,
      "Ġweekly": 7516,
      "Ġbasically": 7517,
      "Ġlawyer": 7518,
      "ĠLocal": 7519,
      "Ġcomplicated": 7520,
      "bra": 7521,
      "arters": 7522,
      "Ġtransaction": 7523,
      "Ġrefund": 7524,
      "iences": 7525,
      "Ġenjoying": 7526,
      "Ġpurchasing": 7527,
      "Ġboxes": 7528,
      "Ġsending": 7529,
      "Ġexceptional": 7530,
      "cal": 7531,
      "Ġhi": 7532,
      "ĠWas": 7533,
      "oof": 7534,
      "agues": 7535,
      "Ġenem": 7536,
      "Ġmemories": 7537,
      "Ġ2002": 7538,
      "Ġdestroy": 7539,
      "Ġarray": 7540,
      "gypt": 7541,
      "Ġneighb": 7542,
      "43": 7543,
      "Ġexposed": 7544,
      "Ġ800": 7545,
      "Ġprinting": 7546,
      "Ġcircuit": 7547,
      "ĠSales": 7548,
      "Ġpreferred": 7549,
      "tes": 7550,
      "ĠSEO": 7551,
      "ĠWrit": 7552,
      "ĠHon": 7553,
      "Ġnewly": 7554,
      "gged": 7555,
      "iversary": 7556,
      "Ġforever": 7557,
      "Ġdropped": 7558,
      "Ġbelieves": 7559,
      "Ġempty": 7560,
      "Ġtor": 7561,
      "Ġlect": 7562,
      "Ġoutcome": 7563,
      "Ġcontaining": 7564,
      "ĠRef": 7565,
      "Ġpresents": 7566,
      "Ġcurtain": 7567,
      "pending": 7568,
      "Ġcausing": 7569,
      "Ġtagged": 7570,
      "Ġstruggle": 7571,
      "Ġê": 7572,
      "Ġille": 7573,
      "Ġyield": 7574,
      "Ġdispos": 7575,
      "Ġ38": 7576,
      "Ġvisible": 7577,
      "tense": 7578,
      "Ġpersons": 7579,
      "Ġappointed": 7580,
      "Ġshooting": 7581,
      "ba": 7582,
      "cular": 7583,
      "ds": 7584,
      "ĠDog": 7585,
      "ĠFed": 7586,
      "ags": 7587,
      "ĠSports": 7588,
      "Ġconsideration": 7589,
      "Ġmarked": 7590,
      "Ġelegant": 7591,
      "Ġpit": 7592,
      "Ġshouldn": 7593,
      "Ġinvolving": 7594,
      "Ġmagazine": 7595,
      "ĠFinancial": 7596,
      "ĠBritain": 7597,
      "Ġliterally": 7598,
      "'.": 7599,
      "llo": 7600,
      "ĠTal": 7601,
      "Ġinfect": 7602,
      "Ġlowest": 7603,
      "ĠArea": 7604,
      "Ġassigned": 7605,
      "Ġgraphics": 7606,
      "gor": 7607,
      "inent": 7608,
      "ĠHoly": 7609,
      "Ġpleasure": 7610,
      "Ġhydro": 7611,
      "ĠHospital": 7612,
      "ĠAriz": 7613,
      "LY": 7614,
      "Ġtile": 7615,
      "ĠBang": 7616,
      "Ġcloth": 7617,
      "ĠÂ·": 7618,
      "ilipp": 7619,
      "Ġhopes": 7620,
      "ĠColorado": 7621,
      "Ġlaptop": 7622,
      "hops": 7623,
      "iams": 7624,
      "Ġdivid": 7625,
      "lder": 7626,
      "Ġrice": 7627,
      "ogether": 7628,
      "Ġposting": 7629,
      "Ġpackages": 7630,
      "Ġcrazy": 7631,
      "Ġrespectively": 7632,
      "Ġphotographs": 7633,
      "othe": 7634,
      "asting": 7635,
      "ĠAndrew": 7636,
      "Ġassume": 7637,
      "Ġsuggests": 7638,
      "Ġdreams": 7639,
      "atellite": 7640,
      "DS": 7641,
      "lers": 7642,
      "ĠBlo": 7643,
      "rip": 7644,
      "Ġremark": 7645,
      "ĠMeet": 7646,
      "Ġtemperatures": 7647,
      "Ġconcepts": 7648,
      "Ġcontinuing": 7649,
      "67": 7650,
      "bing": 7651,
      "bar": 7652,
      "Ġyard": 7653,
      "eters": 7654,
      "ĠHun": 7655,
      "ĠFOR": 7656,
      "ĠLive": 7657,
      "Ġdishes": 7658,
      "Ġspoke": 7659,
      "Ġlucky": 7660,
      "Ġoverwhel": 7661,
      "68": 7662,
      "ller": 7663,
      "ĠEX": 7664,
      "ĠYoung": 7665,
      "Ġcareful": 7666,
      "Ġdriven": 7667,
      "ĠEnvironment": 7668,
      "Ġtraveling": 7669,
      "ĠPerform": 7670,
      "Ġdefinition": 7671,
      "ĠPersonal": 7672,
      "59": 7673,
      "Ġinject": 7674,
      "amental": 7675,
      "ership": 7676,
      "ardens": 7677,
      "Ġunw": 7678,
      "ĠStone": 7679,
      "Ġtrim": 7680,
      "ologist": 7681,
      "ĠTele": 7682,
      "Ġnecessarily": 7683,
      "Ġcorrectly": 7684,
      "ĠHP": 7685,
      "ĠJon": 7686,
      "ĠGuide": 7687,
      "Ġstaying": 7688,
      "Ġwooden": 7689,
      "Ġinteractive": 7690,
      "iti": 7691,
      "Ġlib": 7692,
      "ĠSus": 7693,
      "Ġchances": 7694,
      "Ġallerg": 7695,
      "ĠJim": 7696,
      "Ġenroll": 7697,
      "Ġsupplement": 7698,
      "Ġsheets": 7699,
      "Ġmodified": 7700,
      "Ġminimal": 7701,
      "Ġaccuracy": 7702,
      "Ġdollar": 7703,
      "ĠRichard": 7704,
      "Ġreform": 7705,
      "stery": 7706,
      "ĠGarden": 7707,
      "Ġexpressed": 7708,
      "ĠPacific": 7709,
      "ystem": 7710,
      "Ġtons": 7711,
      "Ġphen": 7712,
      "Ġmale": 7713,
      "ĠEnt": 7714,
      "Ġrecover": 7715,
      "Ġacceler": 7716,
      "Ġdrinking": 7717,
      "Ã¤": 7718,
      "atics": 7719,
      "Ġpace": 7720,
      "ali": 7721,
      "Ġ1990": 7722,
      "58": 7723,
      "host": 7724,
      "oes": 7725,
      "ĠGive": 7726,
      "ĠNight": 7727,
      "Ġservers": 7728,
      "ĠSydney": 7729,
      "Ġdeposit": 7730,
      "New": 7731,
      "Ġtack": 7732,
      "ĠPak": 7733,
      "Ġmeets": 7734,
      "ensus": 7735,
      "athy": 7736,
      "Ġhttps": 7737,
      "ĠDivision": 7738,
      "ko": 7739,
      "Ġeast": 7740,
      "ĠBit": 7741,
      "ĠRam": 7742,
      "that": 7743,
      "liament": 7744,
      "Ġcenters": 7745,
      "Ġhyper": 7746,
      "ventional": 7747,
      "Ġmatches": 7748,
      "Ġye": 7749,
      "aded": 7750,
      "ĠKids": 7751,
      "Ġcovering": 7752,
      "Ġcalendar": 7753,
      "Ġencouraged": 7754,
      "Ġswimming": 7755,
      "!)": 7756,
      "ĠBon": 7757,
      "terior": 7758,
      "uling": 7759,
      "Ġcoloring": 7760,
      "Ġcompletion": 7761,
      "Ġedit": 7762,
      "Ġchecking": 7763,
      "Ġsplit": 7764,
      "Ġhat": 7765,
      "ĠBath": 7766,
      "Ġinstant": 7767,
      "print": 7768,
      "pson": 7769,
      "Ġobserved": 7770,
      "Ġdivision": 7771,
      "Ġvolunteers": 7772,
      "itan": 7773,
      "ĠCome": 7774,
      "Ġneut": 7775,
      "Ġanyway": 7776,
      "Ġheads": 7777,
      "ĠMuslim": 7778,
      "Ġaer": 7779,
      "Ġhole": 7780,
      "raction": 7781,
      "ulpt": 7782,
      "elly": 7783,
      "Ġviewed": 7784,
      "Ġnutrition": 7785,
      "ĠCasino": 7786,
      "ĠQuality": 7787,
      "Com": 7788,
      "Ġbone": 7789,
      "Ġwhilst": 7790,
      "Ġrising": 7791,
      "ĠKim": 7792,
      "ĠAsian": 7793,
      "Ġblocks": 7794,
      "Ġbreast": 7795,
      "Ġparticipation": 7796,
      "Ġmaintained": 7797,
      "So": 7798,
      "Sp": 7799,
      "Ã¶": 7800,
      "Ġintense": 7801,
      "riers": 7802,
      "Ġads": 7803,
      "Ġprison": 7804,
      "Ġsetup": 7805,
      "Ġgrace": 7806,
      "Ġspeakers": 7807,
      "Ġentitled": 7808,
      "NC": 7809,
      "Ġfits": 7810,
      "Ġborrow": 7811,
      "Ġhurt": 7812,
      "ĠLink": 7813,
      "ccer": 7814,
      "ĠWorks": 7815,
      "Ġdamaged": 7816,
      "Ġsuggestions": 7817,
      "Ġinitiative": 7818,
      "Ġstreets": 7819,
      "Press": 7820,
      "bury": 7821,
      "ĠTR": 7822,
      "Ġgained": 7823,
      "ĠWH": 7824,
      "Ġconvert": 7825,
      "ĠLLC": 7826,
      "ĠEgypt": 7827,
      "ĠNig": 7828,
      "Ġworst": 7829,
      "ĠKitchen": 7830,
      "Ġamend": 7831,
      "Ġequival": 7832,
      "Ġutility": 7833,
      "Ġrecognition": 7834,
      "remony": 7835,
      "Ð»": 7836,
      "Ġstuck": 7837,
      "uma": 7838,
      "Ġje": 7839,
      "ributes": 7840,
      "ĠClin": 7841,
      "ĠBrand": 7842,
      "Ġscientists": 7843,
      "Ġinn": 7844,
      "unior": 7845,
      "ĠLiving": 7846,
      "Ġaddresses": 7847,
      "Ġhosted": 7848,
      "Ġobserv": 7849,
      "ĠSoftware": 7850,
      "Ġunexpected": 7851,
      "raid": 7852,
      "ĠMobile": 7853,
      "ĠFre": 7854,
      "ĠNin": 7855,
      "Ġcolours": 7856,
      "Ġpossess": 7857,
      "ĠWithout": 7858,
      "Ġlimits": 7859,
      "Ġdebut": 7860,
      "flow": 7861,
      "Ġinteraction": 7862,
      "ĠLearning": 7863,
      "ĠArizona": 7864,
      "nce": 7865,
      "sue": 7866,
      "Ġmile": 7867,
      "ounter": 7868,
      "!!!!": 7869,
      "Ġclock": 7870,
      "proof": 7871,
      "haust": 7872,
      "Ġrevolution": 7873,
      "Ġ34": 7874,
      "Ġblind": 7875,
      "Ġasset": 7876,
      "Ġfunny": 7877,
      "Ġobst": 7878,
      "Ġzero": 7879,
      "Ġrubber": 7880,
      "Ar": 7881,
      "hot": 7882,
      "Ġbid": 7883,
      "ura": 7884,
      "ĠBa": 7885,
      "ĠRights": 7886,
      "aints": 7887,
      "Ġbuff": 7888,
      "Ġpersonality": 7889,
      "Ġrequested": 7890,
      "ĠWilliams": 7891,
      "Ġdelivering": 7892,
      "Ġoblig": 7893,
      "ĠJoseph": 7894,
      "Ġjewel": 7895,
      "Ġdesigners": 7896,
      "Ġlisting": 7897,
      "Ġfeelings": 7898,
      "ĠSpain": 7899,
      "Ġtermin": 7900,
      "ĠStudies": 7901,
      "Ġpromotion": 7902,
      "Ġwarranty": 7903,
      "69": 7904,
      "PM": 7905,
      "illiant": 7906,
      "ampion": 7907,
      "Ġinsert": 7908,
      "ĠProcess": 7909,
      "Ġtransmission": 7910,
      "Ġskilled": 7911,
      "Ġnic": 7912,
      "ĠCON": 7913,
      "ĠProm": 7914,
      "Ġlets": 7915,
      "Ġpride": 7916,
      "mercial": 7917,
      "Ġdrag": 7918,
      "Ġroads": 7919,
      "itution": 7920,
      "Ġobjective": 7921,
      "Ġproposal": 7922,
      "person": 7923,
      "ĠSup": 7924,
      "char": 7925,
      "ĠFar": 7926,
      "ĠFriend": 7927,
      "ĠLine": 7928,
      "ĠJac": 7929,
      "ĠVan": 7930,
      "ĠChem": 7931,
      "Ġ1999": 7932,
      "ĠInterest": 7933,
      "Don": 7934,
      "ipt": 7935,
      "ĠPage": 7936,
      "ĠFoot": 7937,
      "Ġshirt": 7938,
      "Ġwheels": 7939,
      "lose": 7940,
      "Ġeverywhere": 7941,
      "ĠCatholic": 7942,
      "market": 7943,
      "esh": 7944,
      "Ġlaugh": 7945,
      "Ġcomplim": 7946,
      "ĠVideo": 7947,
      "Ġlesson": 7948,
      "ĠSteve": 7949,
      "Ġconsultation": 7950,
      "bration": 7951,
      "swe": 7952,
      "Ġbars": 7953,
      "Ġgod": 7954,
      "ĠSon": 7955,
      "rage": 7956,
      "ĠHappy": 7957,
      "Ġnoise": 7958,
      "Ġprayer": 7959,
      "Ġdirected": 7960,
      "Ġdemands": 7961,
      "ĠMcC": 7962,
      "SP": 7963,
      "ĠSenior": 7964,
      "uten": 7965,
      "earing": 7966,
      "ĠKar": 7967,
      "anned": 7968,
      "Ġassociation": 7969,
      "ĠBrazil": 7970,
      "EB": 7971,
      "Ġhaz": 7972,
      "ĠEll": 7973,
      "Ġadequ": 7974,
      "Ġdecent": 7975,
      "Ġcrusher": 7976,
      "Ġintelligence": 7977,
      "vas": 7978,
      "xic": 7979,
      "Ġtip": 7980,
      "otive": 7981,
      "racy": 7982,
      "olid": 7983,
      "Ġdeeper": 7984,
      "Ġvisits": 7985,
      "Ġbeneficial": 7986,
      "Ġmarriage": 7987,
      "Ġstudying": 7988,
      "Ġrepresentative": 7989,
      "Ġholidays": 7990,
      "ĠAnnual": 7991,
      "cons": 7992,
      "ĠAlp": 7993,
      "ĠDu": 7994,
      "Ġabuse": 7995,
      "Ġunus": 7996,
      "Ġadvent": 7997,
      "Ġemployer": 7998,
      "Ġobviously": 7999,
      "EP": 8000,
      "bell": 8001,
      "ih": 8002,
      "Ġlift": 8003,
      "Ġpepper": 8004,
      "Ġscored": 8005,
      "iances": 8006,
      "ĠSelect": 8007,
      "Ġbuyer": 8008,
      "Ġoccurs": 8009,
      "Ġsubjects": 8010,
      "Ġconvenience": 8011,
      "ĠProfessional": 8012,
      "ĠFox": 8013,
      "ĠJenn": 8014,
      "Ġconsumption": 8015,
      "ĠModern": 8016,
      "Ġrepeated": 8017,
      "bourne": 8018,
      "Ġpollut": 8019,
      "Ġpp": 8020,
      "ashes": 8021,
      "Ġforum": 8022,
      "ĠSem": 8023,
      "Ġhel": 8024,
      "ĠGir": 8025,
      "aste": 8026,
      "Ġbull": 8027,
      "Ġorganisation": 8028,
      "Ġspecified": 8029,
      "ĠAvailable": 8030,
      "Al": 8031,
      "Ġtired": 8032,
      "Ġgap": 8033,
      "Ġgym": 8034,
      "Ġ65": 8035,
      "Ġstrange": 8036,
      "Ġexplan": 8037,
      "Ġcombine": 8038,
      "xual": 8039,
      "Ġbaking": 8040,
      "Ġstable": 8041,
      "Ġheating": 8042,
      "ppy": 8043,
      "ĠLi": 8044,
      "Ġplot": 8045,
      "Ġ55": 8046,
      "ĠCloud": 8047,
      "Ġcertificate": 8048,
      "Ġstronger": 8049,
      "Ġcriteria": 8050,
      "Ġmaintaining": 8051,
      "Ġsurprising": 8052,
      "ĠGallery": 8053,
      "anted": 8054,
      "ĠLy": 8055,
      "Ġscrew": 8056,
      "lessly": 8057,
      "Ġlargely": 8058,
      "Ġsubstantial": 8059,
      "Ġtill": 8060,
      "inos": 8061,
      "Ġdual": 8062,
      "ĠOak": 8063,
      "coin": 8064,
      "ĠSpace": 8065,
      "Ġexplains": 8066,
      "199": 8067,
      "Ġownership": 8068,
      "isdom": 8069,
      "Ġmood": 8070,
      "Ġalter": 8071,
      "lude": 8072,
      "iana": 8073,
      "Ġinvestments": 8074,
      "Ġanxiety": 8075,
      "RS": 8076,
      "orous": 8077,
      "Ġdowntown": 8078,
      "adow": 8079,
      "Ġgreatly": 8080,
      "Ġsecondary": 8081,
      "ĠSteel": 8082,
      "Ġpreparing": 8083,
      "ĠKingdom": 8084,
      "ĠMembers": 8085,
      "ĠPrivate": 8086,
      "zed": 8087,
      "Ġwave": 8088,
      "aya": 8089,
      "imal": 8090,
      "Ġseed": 8091,
      "Ġrural": 8092,
      "Ġchairs": 8093,
      "ĠChoose": 8094,
      "Ġremained": 8095,
      "ĠJoe": 8096,
      "Ġpromoting": 8097,
      "Ġguaranteed": 8098,
      "Ġbench": 8099,
      "Ġunderstood": 8100,
      "300": 8101,
      "Ġpul": 8102,
      "Ġreaction": 8103,
      "utter": 8104,
      "amic": 8105,
      "Ġyours": 8106,
      "ospel": 8107,
      "ĠKn": 8108,
      "Ġaccord": 8109,
      "ĠBlu": 8110,
      "Ġdamages": 8111,
      "Ġoccurred": 8112,
      "ĠCustomer": 8113,
      "ĠDrive": 8114,
      "Pl": 8115,
      "mg": 8116,
      "igen": 8117,
      "Ġhes": 8118,
      "Ġrhy": 8119,
      "phones": 8120,
      "Ġediting": 8121,
      "Ġestimate": 8122,
      "Ġfundamental": 8123,
      "Ġtexture": 8124,
      "Ġfalling": 8125,
      "Ġtelephone": 8126,
      "gorith": 8127,
      "De": 8128,
      "cur": 8129,
      "Ġpra": 8130,
      "Ġpounds": 8131,
      "ĠTer": 8132,
      "ĠExcell": 8133,
      "Ġrepresented": 8134,
      "Ġlifetime": 8135,
      "Ġfrequency": 8136,
      "Ġpulled": 8137,
      "Ġdemonstrate": 8138,
      "aniel": 8139,
      "ĠSciences": 8140,
      "pat": 8141,
      "Ġmit": 8142,
      "ĠDan": 8143,
      "acious": 8144,
      "ĠYe": 8145,
      "Ġcarpet": 8146,
      "brid": 8147,
      "Ġemails": 8148,
      "ĠStudio": 8149,
      "ĠToronto": 8150,
      "Ġafraid": 8151,
      "abetes": 8152,
      "At": 8153,
      "Ġtherap": 8154,
      "ĠTurn": 8155,
      "Ġresid": 8156,
      "Ġoperated": 8157,
      "Ġnights": 8158,
      "ĠAmong": 8159,
      "Ġresponses": 8160,
      "Ġtracking": 8161,
      "Ġindicate": 8162,
      "Ġentrance": 8163,
      "64": 8164,
      "Ġreact": 8165,
      "ĠPen": 8166,
      "ĠFac": 8167,
      "Ġ250": 8168,
      "Ġfinest": 8169,
      "Ġstrongly": 8170,
      "Ġtalks": 8171,
      "Ġlayers": 8172,
      "Ġadvantages": 8173,
      "To": 8174,
      "mo": 8175,
      "inity": 8176,
      "Ġpitch": 8177,
      "Ġbills": 8178,
      "ĠAwards": 8179,
      "Ġspa": 8180,
      "ĠShare": 8181,
      "Ġpublication": 8182,
      "Ġcalm": 8183,
      "Ġcomputers": 8184,
      "Ġsuspect": 8185,
      "Fi": 8186,
      "Ġwise": 8187,
      "Ġfest": 8188,
      "ĠHor": 8189,
      "Ġalive": 8190,
      "ĠStan": 8191,
      "onym": 8192,
      "Ġdebate": 8193,
      "Ġconfiguration": 8194,
      "bage": 8195,
      "books": 8196,
      "itis": 8197,
      "Ġlake": 8198,
      "Ġgentle": 8199,
      "lyn": 8200,
      "Ġacting": 8201,
      "Ġfarmers": 8202,
      "ĠMichigan": 8203,
      "CT": 8204,
      "sem": 8205,
      "Ġorient": 8206,
      "ateful": 8207,
      "Ġalt": 8208,
      "ĠAsh": 8209,
      "Ġevolution": 8210,
      "bridge": 8211,
      "Ġperiods": 8212,
      "ĠFurthermore": 8213,
      "Ġintellectual": 8214,
      "Ġdiversity": 8215,
      "stract": 8216,
      "ĠHold": 8217,
      "cycle": 8218,
      "Ġheaded": 8219,
      "Ġcharacteristics": 8220,
      "Ġeggs": 8221,
      "Ġevaluate": 8222,
      "ĠColumbia": 8223,
      "ĠWi": 8224,
      "ĠPsych": 8225,
      "ĠUk": 8226,
      "ĠGuys": 8227,
      "ĠCharles": 8228,
      "Ġlegislation": 8229,
      "ĠAgreement": 8230,
      "ĠCapt": 8231,
      "ĠBM": 8232,
      "Ġorange": 8233,
      "acon": 8234,
      "Ġphr": 8235,
      "Ġbroadcast": 8236,
      "ĠQueen": 8237,
      "atin": 8238,
      "ĠHR": 8239,
      "ĠNAS": 8240,
      "aze": 8241,
      "Ġwatched": 8242,
      "mart": 8243,
      "Ġera": 8244,
      "Ġpup": 8245,
      "Ġpatch": 8246,
      "ĠSar": 8247,
      "Ġstages": 8248,
      "ĠStation": 8249,
      "riculum": 8250,
      "Ġfactory": 8251,
      "Ġdrawn": 8252,
      "criptions": 8253,
      "Ġgranted": 8254,
      "fall": 8255,
      "rat": 8256,
      "heast": 8257,
      "Ġpocket": 8258,
      "Ġracing": 8259,
      "ĠArmy": 8260,
      "Ġfocuses": 8261,
      "Ġdecrease": 8262,
      "Ġtissue": 8263,
      "days": 8264,
      "ouch": 8265,
      "ĠBul": 8266,
      "Ġneither": 8267,
      "Ġcomprom": 8268,
      "acter": 8269,
      "Ġopens": 8270,
      "Ġprogramming": 8271,
      "Ġdefine": 8272,
      "Ġcasual": 8273,
      "Ġflexibility": 8274,
      "Ġvenue": 8275,
      "cm": 8276,
      "Ġwarning": 8277,
      "ĠTick": 8278,
      "Ġru": 8279,
      "redit": 8280,
      "Ġprivile": 8281,
      "ĠMinistry": 8282,
      "Ġrapidly": 8283,
      "page": 8284,
      "ĠSM": 8285,
      "Ġunknown": 8286,
      "ruption": 8287,
      "Ġscores": 8288,
      "nell": 8289,
      "Ġfindings": 8290,
      "Ġending": 8291,
      "Ġengines": 8292,
      "Ġgenetic": 8293,
      "Ġintegration": 8294,
      "Ġretirement": 8295,
      "Ġmaps": 8296,
      "Ġouts": 8297,
      "Ġclimb": 8298,
      "Ġconsent": 8299,
      "Ġintroduce": 8300,
      "Ġcopyright": 8301,
      "Ġacquis": 8302,
      "Ġbirds": 8303,
      "Ġtact": 8304,
      "Ġhiring": 8305,
      "ĠField": 8306,
      "ĠLas": 8307,
      "ĠEvent": 8308,
      "Ġhasn": 8309,
      "ĠStat": 8310,
      "ounded": 8311,
      "Ġwanting": 8312,
      "Ġfaced": 8313,
      "Ġimprovements": 8314,
      "ĠVisit": 8315,
      "UM": 8316,
      "Ġisol": 8317,
      "ĠSection": 8318,
      "Ġexists": 8319,
      "ĠRon": 8320,
      "Ġspark": 8321,
      "Ġfault": 8322,
      "Ġhoriz": 8323,
      "Ġconcentration": 8324,
      "cific": 8325,
      "ĠAG": 8326,
      "Ġspots": 8327,
      "Ġscreens": 8328,
      "Ġinspect": 8329,
      "ĠPhilipp": 8330,
      "Ġinjured": 8331,
      "Ġreveal": 8332,
      "Ġcontinuous": 8333,
      "Ġvolunteer": 8334,
      "ĠHawai": 8335,
      "press": 8336,
      "Ġtro": 8337,
      "Ġfinger": 8338,
      "Ġyoga": 8339,
      "Ġnarr": 8340,
      "adium": 8341,
      "ĠMess": 8342,
      "Ġsemin": 8343,
      "Ġsections": 8344,
      "ĠRod": 8345,
      "Ġuncom": 8346,
      "ificial": 8347,
      "ĠJoin": 8348,
      "ĠEmploy": 8349,
      "ĠPolicy": 8350,
      "Ġdurable": 8351,
      "vo": 8352,
      "Ġ39": 8353,
      "Ġoverse": 8354,
      "Ġpeak": 8355,
      "Ġproductivity": 8356,
      "Ġexploring": 8357,
      "Ġphilosophy": 8358,
      "ĠSecretary": 8359,
      "OB": 8360,
      "dri": 8361,
      "uis": 8362,
      "leep": 8363,
      "otal": 8364,
      "ĠBes": 8365,
      "Ġhack": 8366,
      "ĠFlo": 8367,
      "Ġexhaust": 8368,
      "Ġindoor": 8369,
      "Ġstudied": 8370,
      "Ġpolitics": 8371,
      "Ġarrival": 8372,
      "ĠEverything": 8373,
      "Ġdistributed": 8374,
      "itative": 8375,
      "Ġfilling": 8376,
      "ifier": 8377,
      "ĠHolly": 8378,
      "orses": 8379,
      "Ġrecre": 8380,
      "ĠMedicine": 8381,
      "Ġfloors": 8382,
      "Ġinitially": 8383,
      "ĠAdministration": 8384,
      "ĠVillage": 8385,
      "foot": 8386,
      "Ġpad": 8387,
      "Ġalign": 8388,
      "ERS": 8389,
      "graduate": 8390,
      "Ġdatas": 8391,
      "79": 8392,
      "Ġlies": 8393,
      "ĠCut": 8394,
      "ĠDue": 8395,
      "Ġseeds": 8396,
      "Ġbrush": 8397,
      "Ġtrips": 8398,
      "Ġworkshops": 8399,
      "Ġdrinks": 8400,
      "Ġexistence": 8401,
      "----": 8402,
      "ĠEveryone": 8403,
      "Ġliterature": 8404,
      "Ġforgot": 8405,
      "stra": 8406,
      "ĠEC": 8407,
      "Ġprovision": 8408,
      "issions": 8409,
      "09": 8410,
      "Ġmob": 8411,
      "Ġlens": 8412,
      "ĠLuc": 8413,
      "Ġchampions": 8414,
      "Ġalloc": 8415,
      "Ġfinds": 8416,
      "being": 8417,
      "Ġsubsid": 8418,
      "Ġsuffer": 8419,
      "Ġsophist": 8420,
      "UD": 8421,
      "ĠAB": 8422,
      "Ġstro": 8423,
      "Ġboots": 8424,
      "annel": 8425,
      "Ġstatistics": 8426,
      "Ġaims": 8427,
      "Ġknock": 8428,
      "burgh": 8429,
      "ĠØ": 8430,
      "ĠGreek": 8431,
      "Ġcheaper": 8432,
      "Ġmedication": 8433,
      "Ġcouncil": 8434,
      "Ġranking": 8435,
      "ĠProducts": 8436,
      "ĠMotor": 8437,
      "Ġenthusi": 8438,
      "Ġequivalent": 8439,
      "No": 8440,
      "ifully": 8441,
      "ĠDJ": 8442,
      "rible": 8443,
      "ĠNav": 8444,
      "Ġabund": 8445,
      "Ġcoal": 8446,
      "Ġblank": 8447,
      "iki": 8448,
      "Ġceremony": 8449,
      "ESS": 8450,
      "ĠMoreover": 8451,
      "Ġterrit": 8452,
      "Ġcoupon": 8453,
      "ĠSafety": 8454,
      "All": 8455,
      "TR": 8456,
      "Ñĥ": 8457,
      "Ġtum": 8458,
      "ĠGro": 8459,
      "ĠAsk": 8460,
      "Ġspecialists": 8461,
      "Ġchecked": 8462,
      "Ġtemporary": 8463,
      "Ġadopted": 8464,
      "Ġfascin": 8465,
      "cure": 8466,
      "ho": 8467,
      "icious": 8468,
      "urities": 8469,
      "Ġweren": 8470,
      "Ġalgorith": 8471,
      "duction": 8472,
      "Ġrepairs": 8473,
      "awa": 8474,
      "Ġdesigning": 8475,
      "Ġsatisfied": 8476,
      "Ġinventory": 8477,
      "Ġstainless": 8478,
      "And": 8479,
      "bro": 8480,
      "wan": 8481,
      "inery": 8482,
      "sts": 8483,
      "amber": 8484,
      "Ġventure": 8485,
      "Ġplain": 8486,
      "Ġclicking": 8487,
      "Ġthemes": 8488,
      "Ġshell": 8489,
      "Ġelectron": 8490,
      "Ġfraud": 8491,
      "Ġquotes": 8492,
      "Ġeliminate": 8493,
      "Ġwithdraw": 8494,
      "making": 8495,
      "po": 8496,
      "itate": 8497,
      "Ġham": 8498,
      "ĠPo": 8499,
      "ĠHou": 8500,
      "ĠDar": 8501,
      "ĠShort": 8502,
      "Ġengaging": 8503,
      "Ġharder": 8504,
      "Ġkeyword": 8505,
      "Ġcontribution": 8506,
      "Ġratio": 8507,
      "CL": 8508,
      "dale": 8509,
      "Ġcul": 8510,
      "ĠRay": 8511,
      "Ġ1000": 8512,
      "ĠNic": 8513,
      "Ġleague": 8514,
      "Ġapplies": 8515,
      "Ġpubl": 8516,
      "Ġinstitution": 8517,
      "Ġspectac": 8518,
      "Ġdisplays": 8519,
      "cut": 8520,
      "iac": 8521,
      "ĠCopy": 8522,
      "Ġovernight": 8523,
      "Ġinvite": 8524,
      "Ġsalad": 8525,
      "Ġcreativity": 8526,
      "Ġparticipating": 8527,
      "cor": 8528,
      "epend": 8529,
      "htt": 8530,
      "ashed": 8531,
      "ĠDru": 8532,
      "Ġequity": 8533,
      "Ġpacked": 8534,
      "ĠRegard": 8535,
      "ĠGolden": 8536,
      "EF": 8537,
      "tical": 8538,
      "uous": 8539,
      "ĠIra": 8540,
      "Ġgiant": 8541,
      "ĠSav": 8542,
      "ĠDun": 8543,
      "empl": 8544,
      "Ġchips": 8545,
      "ĠOil": 8546,
      "Ġcompact": 8547,
      "Ġuniform": 8548,
      "ĠKent": 8549,
      "aka": 8550,
      "Ġconscious": 8551,
      "Ġfocusing": 8552,
      "ĠContin": 8553,
      "ĠSwed": 8554,
      "ĠModel": 8555,
      "imensions": 8556,
      "itable": 8557,
      "igent": 8558,
      "Ġjur": 8559,
      "Ġresidence": 8560,
      "ĠUSB": 8561,
      "Ġceiling": 8562,
      "06": 8563,
      "07": 8564,
      "AY": 8565,
      "tail": 8566,
      "Ġhate": 8567,
      "ulating": 8568,
      "ĠDVD": 8569,
      "ĠEastern": 8570,
      "Ġsurge": 8571,
      "Ġinitiatives": 8572,
      "ĠMah": 8573,
      "izz": 8574,
      "Ġlocks": 8575,
      "assion": 8576,
      "Ġfrustr": 8577,
      "Ġcontracts": 8578,
      "Ġacquire": 8579,
      "ĠLimited": 8580,
      "Ġtone": 8581,
      "eras": 8582,
      "Ġbab": 8583,
      "Ġmole": 8584,
      "Ġsculpt": 8585,
      "ĠForce": 8586,
      "Ġantib": 8587,
      "limited": 8588,
      "ĠConsider": 8589,
      "quis": 8590,
      "ĠLind": 8591,
      "ĠLyn": 8592,
      "Ġinsights": 8593,
      "ĠLevel": 8594,
      "Ġacquired": 8595,
      "ĠBelow": 8596,
      "ĠConstruction": 8597,
      "sen": 8598,
      "Ġsorry": 8599,
      "Ġbat": 8600,
      "ĠSS": 8601,
      "ĠMade": 8602,
      "emed": 8603,
      "ĠWordPress": 8604,
      "ĠPhoto": 8605,
      "Ġreception": 8606,
      "Ġgaming": 8607,
      "ĠEasy": 8608,
      "ĠNorm": 8609,
      "ĠThink": 8610,
      "Ġ580": 8611,
      "Ġoperator": 8612,
      "Ġfaces": 8613,
      "ucky": 8614,
      "Ġoils": 8615,
      "Ġuniversities": 8616,
      "Ġweapons": 8617,
      "gments": 8618,
      "alysis": 8619,
      "eties": 8620,
      "Ġloyal": 8621,
      "Ġcock": 8622,
      "Ġflights": 8623,
      "Ġboards": 8624,
      "Ġutilize": 8625,
      "Ġgraphic": 8626,
      "pack": 8627,
      "ila": 8628,
      "Ġstood": 8629,
      "ĠBased": 8630,
      "oper": 8631,
      "anna": 8632,
      "Ġimplemented": 8633,
      "ĠSquare": 8634,
      "Ġorganisations": 8635,
      "Ġprotocol": 8636,
      "Ġasp": 8637,
      "ĠFather": 8638,
      "osc": 8639,
      "asted": 8640,
      "Ġconserv": 8641,
      "ĠPrime": 8642,
      "Ġclaimed": 8643,
      "ĠJohnson": 8644,
      "Ġattending": 8645,
      "Ġsought": 8646,
      "ĠCand": 8647,
      "Ġmodule": 8648,
      "Ġreturning": 8649,
      "Ġplane": 8650,
      "ĠCollection": 8651,
      "ĠConsult": 8652,
      "ĠKorea": 8653,
      "Ġdil": 8654,
      "Ġdough": 8655,
      "Ġhook": 8656,
      "Ġlatter": 8657,
      "ĠMD": 8658,
      "Ġspray": 8659,
      "ludes": 8660,
      "ĠPlant": 8661,
      "Ġmuscles": 8662,
      "ĠStudent": 8663,
      "Ġautomatic": 8664,
      "Ġtalked": 8665,
      "Ġconclusion": 8666,
      "Ad": 8667,
      "Ñķ": 8668,
      "atile": 8669,
      "Ġcats": 8670,
      "imp": 8671,
      "una": 8672,
      "Ġseal": 8673,
      "Ġentering": 8674,
      "Ġrelating": 8675,
      "Ġloose": 8676,
      "2019": 8677,
      "Ġcompete": 8678,
      "ĠImage": 8679,
      "ĠMrs": 8680,
      "Ġcelebration": 8681,
      "amsung": 8682,
      "Ġcatalog": 8683,
      "ĠExpress": 8684,
      "%,": 8685,
      "56": 8686,
      "giving": 8687,
      "lled": 8688,
      "unicip": 8689,
      "ĠFact": 8690,
      "Ġadmin": 8691,
      "rooms": 8692,
      "Ġemployed": 8693,
      "Ġpackaging": 8694,
      "ĠCountry": 8695,
      "Ġtitles": 8696,
      "Ġillegal": 8697,
      "ML": 8698,
      "Ġsed": 8699,
      "alt": 8700,
      "ĠCli": 8701,
      "ĠPict": 8702,
      "ĠBB": 8703,
      "ĠNO": 8704,
      "ĠOcean": 8705,
      "teen": 8706,
      "Ġpersonnel": 8707,
      "Ġboot": 8708,
      "Ġpossibilities": 8709,
      "ĠÂ©": 8710,
      "HA": 8711,
      "Ġtube": 8712,
      "Ġhits": 8713,
      "Ġamongst": 8714,
      "Ġdeeply": 8715,
      "Ġopinions": 8716,
      "ĠVegas": 8717,
      "Ġalleged": 8718,
      "800": 8719,
      "Ġbatt": 8720,
      "Ġlie": 8721,
      "Ġsees": 8722,
      "terest": 8723,
      "Ġinspection": 8724,
      "Ġrefrig": 8725,
      "Ġprize": 8726,
      "ĠExam": 8727,
      "Ġaircraft": 8728,
      "Ġexamination": 8729,
      "Ġsurvive": 8730,
      "Ġresolve": 8731,
      "Ġmerely": 8732,
      "Ġcompensation": 8733,
      "CE": 8734,
      "ĠTheatre": 8735,
      "ĠWr": 8736,
      "odge": 8737,
      "Ġintention": 8738,
      "Ġdirections": 8739,
      "Ġelected": 8740,
      "Ġlaid": 8741,
      "Ġwondering": 8742,
      "Ġnewspaper": 8743,
      "ĠSimply": 8744,
      "Ġuncertain": 8745,
      "IK": 8746,
      "Ðº": 8747,
      "Ġhanging": 8748,
      "ĠTool": 8749,
      "Ġnom": 8750,
      "Ġgate": 8751,
      "estone": 8752,
      "ials": 8753,
      "ĠAdam": 8754,
      "Ġmassage": 8755,
      "Ġregulatory": 8756,
      "Ġhighlights": 8757,
      "ĠALL": 8758,
      "ĠFollowing": 8759,
      "ĠScotland": 8760,
      "star": 8761,
      "ĠBand": 8762,
      "ĠRen": 8763,
      "Ġque": 8764,
      "ĠAng": 8765,
      "ĠComb": 8766,
      "Ġprescription": 8767,
      "Ġviewing": 8768,
      "Ġtargeted": 8769,
      "Ġmeaningful": 8770,
      "Ġjuice": 8771,
      "Un": 8772,
      "Ġsatellite": 8773,
      "Ġwins": 8774,
      "eness": 8775,
      "Ġbub": 8776,
      "Ġlaser": 8777,
      "ĠGPS": 8778,
      "Ġraising": 8779,
      "ounge": 8780,
      "Ġimportantly": 8781,
      "ĠWorking": 8782,
      "ĠAirport": 8783,
      "Ġtrusted": 8784,
      "ĠInterior": 8785,
      "ĠProtection": 8786,
      "Ġaluminum": 8787,
      "Ġreaching": 8788,
      "ceived": 8789,
      "Ġprohib": 8790,
      "ĠDom": 8791,
      "ĠWithin": 8792,
      "Ġvisitor": 8793,
      "vironments": 8794,
      "aska": 8795,
      "doors": 8796,
      "Ġmountains": 8797,
      "Ġemotions": 8798,
      "ĠSupreme": 8799,
      "ĠIraq": 8800,
      "One": 8801,
      "liances": 8802,
      "Ġvert": 8803,
      "rets": 8804,
      "ĠDrag": 8805,
      "Ġkeys": 8806,
      "Ġmirror": 8807,
      "Ġvendors": 8808,
      "iary": 8809,
      "olis": 8810,
      "Ġseam": 8811,
      "sole": 8812,
      "Ġuniverse": 8813,
      "Ġtwenty": 8814,
      "Ġedited": 8815,
      "Ġchildhood": 8816,
      "Ġcourts": 8817,
      "VER": 8818,
      "hour": 8819,
      "aters": 8820,
      "athered": 8821,
      "Ġbunch": 8822,
      "ifting": 8823,
      "ĠStra": 8824,
      "Ġprofessor": 8825,
      "ĠAutom": 8826,
      "Ġstability": 8827,
      "ĠFL": 8828,
      "umer": 8829,
      "udi": 8830,
      "agen": 8831,
      "Ġensures": 8832,
      "grade": 8833,
      "Ġsafely": 8834,
      "Ġdiagnosis": 8835,
      "ĠFrancisco": 8836,
      "Ġpodcast": 8837,
      "wear": 8838,
      "Ġmild": 8839,
      "ige": 8840,
      "ĠMap": 8841,
      "ĠLA": 8842,
      "ĠLew": 8843,
      "ĠJord": 8844,
      "ĠKat": 8845,
      "Ġsupplied": 8846,
      "Ġcomplement": 8847,
      "Ġescape": 8848,
      "ĠContract": 8849,
      "Ġtalented": 8850,
      "Ġrespective": 8851,
      "Ġdepression": 8852,
      "ĠStrateg": 8853,
      "Ġfleet": 8854,
      "Ġheavily": 8855,
      "ji": 8856,
      "rif": 8857,
      "Ġhub": 8858,
      "Ġnorthern": 8859,
      "sell": 8860,
      "Ġsegment": 8861,
      "Ġlease": 8862,
      "ĠUr": 8863,
      "Ġpermit": 8864,
      "Ġ64": 8865,
      "Ġgender": 8866,
      "Ġpassionate": 8867,
      "Ġscratch": 8868,
      "Ġhoney": 8869,
      "owa": 8870,
      "ador": 8871,
      "adel": 8872,
      "ĠOx": 8873,
      "agers": 8874,
      "Ġtwist": 8875,
      "Ġfewer": 8876,
      "Ġbreaking": 8877,
      "ĠFront": 8878,
      "Ġcaps": 8879,
      "ropical": 8880,
      "Ġlanguages": 8881,
      "Ġessentially": 8882,
      "Ġrarely": 8883,
      "Ġfing": 8884,
      "arry": 8885,
      "child": 8886,
      "Ġrecruit": 8887,
      "Ġcooperation": 8888,
      "Ġnegoti": 8889,
      "iology": 8890,
      "ĠCS": 8891,
      "igs": 8892,
      "Ġvine": 8893,
      "Ġspir": 8894,
      "Ġimpression": 8895,
      "Ġconcert": 8896,
      "Ġdirectors": 8897,
      "Ġpainted": 8898,
      "Ġlegit": 8899,
      "Ġbeds": 8900,
      "ĠQuest": 8901,
      "looking": 8902,
      "ĠSale": 8903,
      "ĠLabor": 8904,
      "aret": 8905,
      "Ġaged": 8906,
      "Ġformula": 8907,
      "ĠLeg": 8908,
      "Ġmistake": 8909,
      "86": 8910,
      "WS": 8911,
      "oned": 8912,
      "ĠToy": 8913,
      "Ġgene": 8914,
      "ĠHur": 8915,
      "Ġriding": 8916,
      "Ġindicated": 8917,
      "Ġlocally": 8918,
      "Ġstrike": 8919,
      "fers": 8920,
      "ðŁ": 8921,
      "rec": 8922,
      "Ġfitted": 8923,
      "Ġdim": 8924,
      "ĠCub": 8925,
      "Ġheaven": 8926,
      "ĠDO": 8927,
      "Ġanymore": 8928,
      "Ġ1980": 8929,
      "Ġequally": 8930,
      "ĠChristians": 8931,
      "Ġtrem": 8932,
      "Ġflooring": 8933,
      "Ġfalls": 8934,
      "ĠAgency": 8935,
      "Ġholes": 8936,
      "ĠCorporation": 8937,
      "Ġstrengthen": 8938,
      "Ġdocumentation": 8939,
      "Ġexclus": 8940,
      "Ġsuddenly": 8941,
      "89": 8942,
      "isa": 8943,
      "Ġfiber": 8944,
      "ĠCooper": 8945,
      "ĠMother": 8946,
      "Ġdecline": 8947,
      "ĠAlways": 8948,
      "Ġmeasured": 8949,
      "ILL": 8950,
      "ĠPrior": 8951,
      "tic": 8952,
      "uan": 8953,
      "Ġpor": 8954,
      "Ġdess": 8955,
      "ĠPop": 8956,
      "ĠHas": 8957,
      "ĠOl": 8958,
      "obe": 8959,
      "ĠAnaly": 8960,
      "Ġinvesting": 8961,
      "Ġheading": 8962,
      "ĠImp": 8963,
      "ĠJustice": 8964,
      "ĠUser": 8965,
      "ĠGlass": 8966,
      "xygen": 8967,
      "Ġtie": 8968,
      "Ġcord": 8969,
      "encing": 8970,
      "style": 8971,
      "employ": 8972,
      "Ġworship": 8973,
      "Ġenvironments": 8974,
      "ouses": 8975,
      "Ġgrateful": 8976,
      "AND": 8977,
      "Ġexamine": 8978,
      "ĠRepair": 8979,
      "Ġsentence": 8980,
      "Ġconstructed": 8981,
      "ĠBeautiful": 8982,
      "Americ": 8983,
      "Sc": 8984,
      "isd": 8985,
      "Ġangle": 8986,
      "Ġmac": 8987,
      "orship": 8988,
      "Ġcurrency": 8989,
      "Ġgovernments": 8990,
      "Ġdelivers": 8991,
      "ĠStudy": 8992,
      "ĠBarb": 8993,
      "Ġtargets": 8994,
      "Ġbehavi": 8995,
      "Ġarrangements": 8996,
      "Ġconsequences": 8997,
      "achelor": 8998,
      "mers": 8999,
      "oices": 9000,
      "Ġaest": 9001,
      "Ġflying": 9002,
      "etch": 9003,
      "ghan": 9004,
      "Ġgenerations": 9005,
      "Ġopposition": 9006,
      "Ġaccounting": 9007,
      "Ġcontractors": 9008,
      "Ġobjectives": 9009,
      "Ġaccommodation": 9010,
      "Ġcolleagues": 9011,
      "03": 9012,
      "Do": 9013,
      "Ã¢": 9014,
      "step": 9015,
      "ĠCool": 9016,
      "ĠRom": 9017,
      "ĠChall": 9018,
      "Ġprime": 9019,
      "Ġproduces": 9020,
      "Ġlistings": 9021,
      "Ġdrain": 9022,
      "Ġpurchases": 9023,
      "Ġmanufactured": 9024,
      "Ġthousand": 9025,
      "Ġmistakes": 9026,
      "ĠElectric": 9027,
      "Ġpets": 9028,
      "Ġthri": 9029,
      "rog": 9030,
      "ĠMs": 9031,
      "ĠDNA": 9032,
      "ĠFa": 9033,
      "ĠGene": 9034,
      "through": 9035,
      "ĠViet": 9036,
      "Ġfinishing": 9037,
      "Ġattitude": 9038,
      "aza": 9039,
      "Ġputs": 9040,
      "Ġnetworking": 9041,
      "ĠCarl": 9042,
      "Ġvirtually": 9043,
      "hr": 9044,
      "Ġsouthern": 9045,
      "Ġwake": 9046,
      "Ġcrown": 9047,
      "Ġrede": 9048,
      "ĠWinter": 9049,
      "ĠRun": 9050,
      "osph": 9051,
      "Ġrack": 9052,
      "Ġrepeat": 9053,
      "Ġrobust": 9054,
      "ĠNatural": 9055,
      "Ġranging": 9056,
      "ĠMelbourne": 9057,
      "Ġdesktop": 9058,
      "Ġcompatible": 9059,
      "With": 9060,
      "lined": 9061,
      "Ġsen": 9062,
      "Ġrelation": 9063,
      "Ġoppon": 9064,
      "ĠPerfect": 9065,
      "ĠPartners": 9066,
      "ĠBroad": 9067,
      "Ġwaters": 9068,
      "ĠForest": 9069,
      "Ġentrepreneurs": 9070,
      "Ġfruits": 9071,
      "Ġrhyth": 9072,
      ".;": 9073,
      "TER": 9074,
      "sized": 9075,
      "Ġcher": 9076,
      "ĠIM": 9077,
      "Ġadj": 9078,
      "Ġtender": 9079,
      "icted": 9080,
      "Ġrefuge": 9081,
      "Ġsurely": 9082,
      "Ġconvin": 9083,
      "ffective": 9084,
      "rick": 9085,
      "onom": 9086,
      "Ġpizza": 9087,
      "Ġbold": 9088,
      "Ġhabits": 9089,
      "Ġexterior": 9090,
      "ĠNC": 9091,
      "ĠOK": 9092,
      "Ġlemon": 9093,
      "oding": 9094,
      "Ġcomposition": 9095,
      "Ġbackup": 9096,
      "Ġdrives": 9097,
      "Ġcrash": 9098,
      "axy": 9099,
      "ĠPrim": 9100,
      "Ġtournament": 9101,
      "Ġrepresentation": 9102,
      "Ġrepresentatives": 9103,
      "',": 9104,
      "wall": 9105,
      "ĠSave": 9106,
      "ĠAvenue": 9107,
      "ilton": 9108,
      "kel": 9109,
      "ocracy": 9110,
      "Ġbroke": 9111,
      "Ġanniversary": 9112,
      "Ġprotecting": 9113,
      "Ġencounter": 9114,
      "Ġprinciple": 9115,
      "Ġdiscounts": 9116,
      "Ġscenes": 9117,
      "stein": 9118,
      "Ġtoile": 9119,
      "Ġrefe": 9120,
      "Ġgal": 9121,
      "ĠSA": 9122,
      "ĠAve": 9123,
      "ĠCru": 9124,
      "ĠWelcome": 9125,
      "ĠBase": 9126,
      "Ġ120": 9127,
      "Ġperm": 9128,
      "Ġ95": 9129,
      "Ġcollections": 9130,
      "regon": 9131,
      "Ġattempts": 9132,
      "Ġburning": 9133,
      "Ġmechanical": 9134,
      "ĠLatin": 9135,
      "Ġvictims": 9136,
      "Ġpregnancy": 9137,
      "ĠMeanwhile": 9138,
      "tw": 9139,
      "ols": 9140,
      "Ġconventional": 9141,
      "abil": 9142,
      "Ġfinancing": 9143,
      "Ġcurriculum": 9144,
      "Ġfireplace": 9145,
      "Ġmathem": 9146,
      "Ġgolden": 9147,
      "Ġpowers": 9148,
      "Ġstylish": 9149,
      "Ġaccommodate": 9150,
      "Ġsubsequent": 9151,
      "swered": 9152,
      "Bl": 9153,
      "tim": 9154,
      "oli": 9155,
      "Ġsear": 9156,
      "Ġalarm": 9157,
      "ĠUnivers": 9158,
      "theless": 9159,
      "ĠBrother": 9160,
      "iscal": 9161,
      "Ġbedrooms": 9162,
      "ĠStandard": 9163,
      "Ġphenomen": 9164,
      "!âĢĿ": 9165,
      "power": 9166,
      "abling": 9167,
      "Ġamen": 9168,
      "Ġaccum": 9169,
      "Ġentert": 9170,
      "Ġhandy": 9171,
      "Ġcontacts": 9172,
      "aimed": 9173,
      "Ġsmoke": 9174,
      "visor": 9175,
      "Ġtutorial": 9176,
      "Ġaccordance": 9177,
      "oom": 9178,
      "Ġought": 9179,
      "oted": 9180,
      "uset": 9181,
      "iffe": 9182,
      "Ġlegend": 9183,
      "Ġcontents": 9184,
      "Ġincent": 9185,
      "Ġreply": 9186,
      "Ġcontributions": 9187,
      "Ġenforcement": 9188,
      "76": 9189,
      "Ġwisdom": 9190,
      "Ġyards": 9191,
      "ĠSD": 9192,
      "ĠSH": 9193,
      "Ġproport": 9194,
      "Ġworn": 9195,
      "Ġsofa": 9196,
      "Ġresident": 9197,
      "ĠKenn": 9198,
      "Ġoverview": 9199,
      "Ġpatio": 9200,
      "ĠPharm": 9201,
      "ĠRadio": 9202,
      "Ġbasketball": 9203,
      "ĠDiego": 9204,
      "ĠHouston": 9205,
      "UI": 9206,
      "tons": 9207,
      "rection": 9208,
      "Ġwestern": 9209,
      "utical": 9210,
      "Ġraces": 9211,
      "Ġdeveloper": 9212,
      "Ġvariable": 9213,
      "Ġremoving": 9214,
      "Ġclosing": 9215,
      "Ġexpanded": 9216,
      "Ġnursing": 9217,
      "ĠComputer": 9218,
      "Ġunusual": 9219,
      "%)": 9220,
      "low": 9221,
      "Ġsized": 9222,
      "Ġpicking": 9223,
      "Ġdies": 9224,
      "ĠCase": 9225,
      "ĠWant": 9226,
      "ĠBan": 9227,
      "Ġaband": 9228,
      "athan": 9229,
      "Ġexplo": 9230,
      "Ġretain": 9231,
      "aux": 9232,
      "Ġsolo": 9233,
      "Ġconsistently": 9234,
      "umni": 9235,
      "Ġordinary": 9236,
      "Ġjewelry": 9237,
      "Le": 9238,
      "mat": 9239,
      "run": 9240,
      "Ġhorses": 9241,
      "ĠSher": 9242,
      "ĠAction": 9243,
      "ĠDaniel": 9244,
      "Ġworkplace": 9245,
      "Ġgenerating": 9246,
      "ĠiOS": 9247,
      "ĠConc": 9248,
      "Ġsteam": 9249,
[...]
